#include "magic_wand_model_data.h"

// We need to keep the data array aligned on some architectures.
#ifdef __has_attribute
#define HAVE_ATTRIBUTE(x) __has_attribute(x)
#else
#define HAVE_ATTRIBUTE(x) 0
#endif
#if HAVE_ATTRIBUTE(aligned) || (defined(__GNUC__) && !defined(__clang__))
#define DATA_ALIGN_ATTRIBUTE __attribute__((aligned(4)))
#else
#define DATA_ALIGN_ATTRIBUTE
#endif

const unsigned char g_magic_wand_model_data[] DATA_ALIGN_ATTRIBUTE = {
  // Paste the data of the char array in `src/model.cc` here
  0x08, 0x00, 0x00, 0x00, 0x54, 0x46, 0x4c, 0x33, 0x62, 0xff, 0xff, 0xff,
  0x03, 0x00, 0x00, 0x00, 0x10, 0x00, 0x00, 0x00, 0x24, 0x00, 0x00, 0x00,
  0x78, 0x00, 0x00, 0x00, 0x24, 0x00, 0x00, 0x00, 0x05, 0x00, 0x00, 0x00,
  0x78, 0x05, 0x00, 0x00, 0xb0, 0x04, 0x00, 0x00, 0xe0, 0x02, 0x00, 0x00,
  0x60, 0x02, 0x00, 0x00, 0x54, 0x01, 0x00, 0x00, 0x01, 0x00, 0x00, 0x00,
  0x78, 0x00, 0x00, 0x00, 0x13, 0x00, 0x00, 0x00, 0xd4, 0x2f, 0x00, 0x00,
  0xd0, 0x2f, 0x00, 0x00, 0xdc, 0x2e, 0x00, 0x00, 0x68, 0x2e, 0x00, 0x00,
  0xfc, 0x2d, 0x00, 0x00, 0xac, 0x11, 0x00, 0x00, 0x98, 0x10, 0x00, 0x00,
  0xbc, 0x0e, 0x00, 0x00, 0x60, 0x06, 0x00, 0x00, 0xfc, 0x05, 0x00, 0x00,
  0x78, 0x05, 0x00, 0x00, 0xa8, 0x2f, 0x00, 0x00, 0xa4, 0x2f, 0x00, 0x00,
  0xa0, 0x2f, 0x00, 0x00, 0x9c, 0x2f, 0x00, 0x00, 0x98, 0x2f, 0x00, 0x00,
  0x94, 0x2f, 0x00, 0x00, 0x90, 0x2f, 0x00, 0x00, 0x8c, 0x2f, 0x00, 0x00,
  0x0f, 0x00, 0x00, 0x00, 0x4d, 0x4c, 0x49, 0x52, 0x20, 0x43, 0x6f, 0x6e,
  0x76, 0x65, 0x72, 0x74, 0x65, 0x64, 0x2e, 0x00, 0x00, 0x00, 0x0e, 0x00,
  0x18, 0x00, 0x04, 0x00, 0x08, 0x00, 0x0c, 0x00, 0x10, 0x00, 0x14, 0x00,
  0x0e, 0x00, 0x00, 0x00, 0x14, 0x00, 0x00, 0x00, 0x5c, 0x00, 0x00, 0x00,
  0x60, 0x00, 0x00, 0x00, 0x64, 0x00, 0x00, 0x00, 0x84, 0x00, 0x00, 0x00,
  0x12, 0x00, 0x00, 0x00, 0x04, 0x2f, 0x00, 0x00, 0xa0, 0x2e, 0x00, 0x00,
  0xf8, 0x2d, 0x00, 0x00, 0x98, 0x2d, 0x00, 0x00, 0x30, 0x2d, 0x00, 0x00,
  0xdc, 0x10, 0x00, 0x00, 0xc0, 0x0f, 0x00, 0x00, 0xe4, 0x0d, 0x00, 0x00,
  0xa0, 0x05, 0x00, 0x00, 0x3c, 0x05, 0x00, 0x00, 0xb0, 0x04, 0x00, 0x00,
  0xe8, 0x03, 0x00, 0x00, 0x38, 0x03, 0x00, 0x00, 0xa4, 0x02, 0x00, 0x00,
  0x10, 0x02, 0x00, 0x00, 0x90, 0x01, 0x00, 0x00, 0xfc, 0x00, 0x00, 0x00,
  0x80, 0x00, 0x00, 0x00, 0x01, 0x00, 0x00, 0x00, 0x00, 0x00, 0x00, 0x00,
  0x01, 0x00, 0x00, 0x00, 0x11, 0x00, 0x00, 0x00, 0x08, 0x00, 0x00, 0x00,
  0x1c, 0x04, 0x00, 0x00, 0x58, 0x03, 0x00, 0x00, 0xc8, 0x02, 0x00, 0x00,
  0x24, 0x02, 0x00, 0x00, 0xac, 0x01, 0x00, 0x00, 0x10, 0x01, 0x00, 0x00,
  0x94, 0x00, 0x00, 0x00, 0x10, 0x00, 0x00, 0x00, 0x04, 0x00, 0x00, 0x00,
  0x6d, 0x61, 0x69, 0x6e, 0x00, 0x00, 0x00, 0x00, 0x8e, 0xff, 0xff, 0xff,
  0x00, 0x00, 0x00, 0x09, 0x04, 0x00, 0x00, 0x00, 0x1c, 0x00, 0x00, 0x00,
  0x10, 0x00, 0x00, 0x00, 0x04, 0x00, 0x00, 0x00, 0x4e, 0xd2, 0xff, 0xff,
  0x00, 0x00, 0x80, 0x3f, 0x01, 0x00, 0x00, 0x00, 0x11, 0x00, 0x00, 0x00,
  0x01, 0x00, 0x00, 0x00, 0x10, 0x00, 0x00, 0x00, 0xf6, 0xfb, 0xff, 0xff,
  0x00, 0x00, 0x00, 0x19, 0x01, 0x00, 0x00, 0x00, 0xce, 0xd1, 0xff, 0xff,
  0x10, 0x00, 0x00, 0x00, 0x12, 0x00, 0x00, 0x00, 0x14, 0x00, 0x00, 0x00,
  0x20, 0x00, 0x00, 0x00, 0x02, 0x00, 0x00, 0x00, 0x01, 0x00, 0x00, 0x00,
  0x03, 0x00, 0x00, 0x00, 0x08, 0x00, 0x00, 0x00, 0x49, 0x64, 0x65, 0x6e,
  0x74, 0x69, 0x74, 0x79, 0x00, 0x00, 0x00, 0x00, 0x08, 0xd2, 0xff, 0xff,
  0x00, 0x00, 0x0e, 0x00, 0x18, 0x00, 0x08, 0x00, 0x0c, 0x00, 0x10, 0x00,
  0x07, 0x00, 0x14, 0x00, 0x0e, 0x00, 0x00, 0x00, 0x00, 0x00, 0x00, 0x08,
  0x03, 0x00, 0x00, 0x00, 0x18, 0x00, 0x00, 0x00, 0x0c, 0x00, 0x00, 0x00,
  0x04, 0x00, 0x00, 0x00, 0xdc, 0xd1, 0xff, 0xff, 0x01, 0x00, 0x00, 0x00,
  0x10, 0x00, 0x00, 0x00, 0x03, 0x00, 0x00, 0x00, 0x0f, 0x00, 0x00, 0x00,
  0x05, 0x00, 0x00, 0x00, 0x02, 0x00, 0x00, 0x00, 0x46, 0xd2, 0xff, 0xff,
  0x10, 0x00, 0x00, 0x00, 0x11, 0x00, 0x00, 0x00, 0x14, 0x00, 0x00, 0x00,
  0x30, 0x00, 0x00, 0x00, 0x02, 0x00, 0x00, 0x00, 0x01, 0x00, 0x00, 0x00,
  0x03, 0x00, 0x00, 0x00, 0x1a, 0x00, 0x00, 0x00, 0x73, 0x65, 0x71, 0x75,
  0x65, 0x6e, 0x74, 0x69, 0x61, 0x6c, 0x2f, 0x64, 0x65, 0x6e, 0x73, 0x65,
  0x5f, 0x31, 0x2f, 0x42, 0x69, 0x61, 0x73, 0x41, 0x64, 0x64, 0x00, 0x00,
  0x38, 0xd2, 0xff, 0xff, 0xd6, 0xfd, 0xff, 0xff, 0x00, 0x00, 0x00, 0x08,
  0x03, 0x00, 0x00, 0x00, 0x24, 0x00, 0x00, 0x00, 0x18, 0x00, 0x00, 0x00,
  0x0c, 0x00, 0x00, 0x00, 0x00, 0x00, 0x06, 0x00, 0x08, 0x00, 0x07, 0x00,
  0x06, 0x00, 0x00, 0x00, 0x00, 0x00, 0x00, 0x01, 0x01, 0x00, 0x00, 0x00,
  0x0f, 0x00, 0x00, 0x00, 0x03, 0x00, 0x00, 0x00, 0x0e, 0x00, 0x00, 0x00,
  0x04, 0x00, 0x00, 0x00, 0x01, 0x00, 0x00, 0x00, 0xfe, 0xfc, 0xff, 0xff,
  0x00, 0x00, 0x00, 0x09, 0x01, 0x00, 0x00, 0x00, 0xd6, 0xd2, 0xff, 0xff,
  0x10, 0x00, 0x00, 0x00, 0x10, 0x00, 0x00, 0x00, 0x14, 0x00, 0x00, 0x00,
  0x2c, 0x00, 0x00, 0x00, 0x02, 0x00, 0x00, 0x00, 0x01, 0x00, 0x00, 0x00,
  0x10, 0x00, 0x00, 0x00, 0x15, 0x00, 0x00, 0x00, 0x73, 0x65, 0x71, 0x75,
  0x65, 0x6e, 0x74, 0x69, 0x61, 0x6c, 0x2f, 0x64, 0x65, 0x6e, 0x73, 0x65,
  0x2f, 0x52, 0x65, 0x6c, 0x75, 0x00, 0x00, 0x00, 0x1c, 0xd3, 0xff, 0xff,
  0x00, 0x00, 0x0a, 0x00, 0x10, 0x00, 0x04, 0x00, 0x08, 0x00, 0x0c, 0x00,
  0x0a, 0x00, 0x00, 0x00, 0x02, 0x00, 0x00, 0x00, 0x10, 0x00, 0x00, 0x00,
  0x04, 0x00, 0x00, 0x00, 0x01, 0x00, 0x00, 0x00, 0x0e, 0x00, 0x00, 0x00,
  0x02, 0x00, 0x00, 0x00, 0x0d, 0x00, 0x00, 0x00, 0x03, 0x00, 0x00, 0x00,
  0x7a, 0xfd, 0xff, 0xff, 0x00, 0x00, 0x00, 0x16, 0x01, 0x00, 0x00, 0x00,
  0x52, 0xd3, 0xff, 0xff, 0x10, 0x00, 0x00, 0x00, 0x0f, 0x00, 0x00, 0x00,
  0x14, 0x00, 0x00, 0x00, 0x30, 0x00, 0x00, 0x00, 0x02, 0x00, 0x00, 0x00,
  0x01, 0x00, 0x00, 0x00, 0x70, 0x00, 0x00, 0x00, 0x1a, 0x00, 0x00, 0x00,
  0x73, 0x65, 0x71, 0x75, 0x65, 0x6e, 0x74, 0x69, 0x61, 0x6c, 0x2f, 0x66,
  0x6c, 0x61, 0x74, 0x74, 0x65, 0x6e, 0x2f, 0x52, 0x65, 0x73, 0x68, 0x61,
  0x70, 0x65, 0x00, 0x00, 0x44, 0xd3, 0xff, 0xff, 0xe2, 0xfe, 0xff, 0xff,
  0x00, 0x00, 0x00, 0x05, 0x01, 0x00, 0x00, 0x00, 0x38, 0x00, 0x00, 0x00,
  0x2c, 0x00, 0x00, 0x00, 0x14, 0x00, 0x00, 0x00, 0x00, 0x00, 0x0e, 0x00,
  0x14, 0x00, 0x00, 0x00, 0x10, 0x00, 0x0c, 0x00, 0x08, 0x00, 0x04, 0x00,
  0x0e, 0x00, 0x00, 0x00, 0x03, 0x00, 0x00, 0x00, 0x01, 0x00, 0x00, 0x00,
  0x03, 0x00, 0x00, 0x00, 0x01, 0x00, 0x00, 0x00, 0x01, 0x00, 0x00, 0x00,
  0x0d, 0x00, 0x00, 0x00, 0x01, 0x00, 0x00, 0x00, 0x0c, 0x00, 0x00, 0x00,
  0xe2, 0xd3, 0xff, 0xff, 0x10, 0x00, 0x00, 0x00, 0x0e, 0x00, 0x00, 0x00,
  0x1c, 0x00, 0x00, 0x00, 0x40, 0x00, 0x00, 0x00, 0x04, 0x00, 0x00, 0x00,
  0x01, 0x00, 0x00, 0x00, 0x07, 0x00, 0x00, 0x00, 0x01, 0x00, 0x00, 0x00,
  0x10, 0x00, 0x00, 0x00, 0x22, 0x00, 0x00, 0x00, 0x73, 0x65, 0x71, 0x75,
  0x65, 0x6e, 0x74, 0x69, 0x61, 0x6c, 0x2f, 0x6d, 0x61, 0x78, 0x5f, 0x70,
  0x6f, 0x6f, 0x6c, 0x69, 0x6e, 0x67, 0x32, 0x64, 0x5f, 0x31, 0x2f, 0x4d,
  0x61, 0x78, 0x50, 0x6f, 0x6f, 0x6c, 0x00, 0x00, 0xe4, 0xd3, 0xff, 0xff,
  0xc2, 0xfe, 0xff, 0xff, 0x00, 0x00, 0x00, 0x01, 0x24, 0x00, 0x00, 0x00,
  0x18, 0x00, 0x00, 0x00, 0x04, 0x00, 0x00, 0x00, 0xb4, 0xfe, 0xff, 0xff,
  0x01, 0x00, 0x00, 0x00, 0x01, 0x00, 0x00, 0x00, 0x00, 0x00, 0x00, 0x01,
  0x01, 0x00, 0x00, 0x00, 0x0c, 0x00, 0x00, 0x00, 0x03, 0x00, 0x00, 0x00,
  0x0b, 0x00, 0x00, 0x00, 0x07, 0x00, 0x00, 0x00, 0x09, 0x00, 0x00, 0x00,
  0x72, 0xd4, 0xff, 0xff, 0x10, 0x00, 0x00, 0x00, 0x0d, 0x00, 0x00, 0x00,
  0x1c, 0x00, 0x00, 0x00, 0x2c, 0x00, 0x00, 0x00, 0x04, 0x00, 0x00, 0x00,
  0x01, 0x00, 0x00, 0x00, 0x15, 0x00, 0x00, 0x00, 0x01, 0x00, 0x00, 0x00,
  0x10, 0x00, 0x00, 0x00, 0x0c, 0x00, 0x00, 0x00, 0x74, 0x66, 0x6c, 0x2e,
  0x63, 0x6f, 0x6e, 0x76, 0x5f, 0x32, 0x64, 0x31, 0x00, 0x00, 0x00, 0x00,
  0xb8, 0xd4, 0xff, 0xff, 0x00, 0x00, 0x0e, 0x00, 0x1a, 0x00, 0x08, 0x00,
  0x0c, 0x00, 0x10, 0x00, 0x07, 0x00, 0x14, 0x00, 0x0e, 0x00, 0x00, 0x00,
  0x00, 0x00, 0x00, 0x05, 0x01, 0x00, 0x00, 0x00, 0x3c, 0x00, 0x00, 0x00,
  0x30, 0x00, 0x00, 0x00, 0x14, 0x00, 0x00, 0x00, 0x00, 0x00, 0x0e, 0x00,
  0x18, 0x00, 0x17, 0x00, 0x10, 0x00, 0x0c, 0x00, 0x08, 0x00, 0x04, 0x00,
  0x0e, 0x00, 0x00, 0x00, 0x03, 0x00, 0x00, 0x00, 0x03, 0x00, 0x00, 0x00,
  0x03, 0x00, 0x00, 0x00, 0x03, 0x00, 0x00, 0x00, 0x00, 0x00, 0x00, 0x01,
  0x01, 0x00, 0x00, 0x00, 0x0b, 0x00, 0x00, 0x00, 0x01, 0x00, 0x00, 0x00,
  0x0a, 0x00, 0x00, 0x00, 0x46, 0xff, 0xff, 0xff, 0x00, 0x00, 0x00, 0x11,
  0x01, 0x00, 0x00, 0x00, 0x1e, 0xd5, 0xff, 0xff, 0x10, 0x00, 0x00, 0x00,
  0x0c, 0x00, 0x00, 0x00, 0x1c, 0x00, 0x00, 0x00, 0x40, 0x00, 0x00, 0x00,
  0x04, 0x00, 0x00, 0x00, 0x01, 0x00, 0x00, 0x00, 0x15, 0x00, 0x00, 0x00,
  0x01, 0x00, 0x00, 0x00, 0x08, 0x00, 0x00, 0x00, 0x20, 0x00, 0x00, 0x00,
  0x73, 0x65, 0x71, 0x75, 0x65, 0x6e, 0x74, 0x69, 0x61, 0x6c, 0x2f, 0x6d,
  0x61, 0x78, 0x5f, 0x70, 0x6f, 0x6f, 0x6c, 0x69, 0x6e, 0x67, 0x32, 0x64,
  0x2f, 0x4d, 0x61, 0x78, 0x50, 0x6f, 0x6f, 0x6c, 0x00, 0x00, 0x00, 0x00,
  0x78, 0xd5, 0xff, 0xff, 0x00, 0x00, 0x0e, 0x00, 0x14, 0x00, 0x00, 0x00,
  0x08, 0x00, 0x0c, 0x00, 0x07, 0x00, 0x10, 0x00, 0x0e, 0x00, 0x00, 0x00,
  0x00, 0x00, 0x00, 0x01, 0x30, 0x00, 0x00, 0x00, 0x24, 0x00, 0x00, 0x00,
  0x10, 0x00, 0x00, 0x00, 0x0c, 0x00, 0x10, 0x00, 0x00, 0x00, 0x04, 0x00,
  0x08, 0x00, 0x0f, 0x00, 0x0c, 0x00, 0x00, 0x00, 0x01, 0x00, 0x00, 0x00,
  0x01, 0x00, 0x00, 0x00, 0x00, 0x00, 0x00, 0x01, 0x01, 0x00, 0x00, 0x00,
  0x0a, 0x00, 0x00, 0x00, 0x03, 0x00, 0x00, 0x00, 0x00, 0x00, 0x00, 0x00,
  0x06, 0x00, 0x00, 0x00, 0x08, 0x00, 0x00, 0x00, 0x00, 0x00, 0x0a, 0x00,
  0x0c, 0x00, 0x07, 0x00, 0x00, 0x00, 0x08, 0x00, 0x0a, 0x00, 0x00, 0x00,
  0x00, 0x00, 0x00, 0x03, 0x01, 0x00, 0x00, 0x00, 0xe2, 0xd5, 0xff, 0xff,
  0x10, 0x00, 0x00, 0x00, 0x0b, 0x00, 0x00, 0x00, 0x1c, 0x00, 0x00, 0x00,
  0x28, 0x00, 0x00, 0x00, 0x04, 0x00, 0x00, 0x00, 0x01, 0x00, 0x00, 0x00,
  0x40, 0x00, 0x00, 0x00, 0x03, 0x00, 0x00, 0x00, 0x08, 0x00, 0x00, 0x00,
  0x0b, 0x00, 0x00, 0x00, 0x74, 0x66, 0x6c, 0x2e, 0x63, 0x6f, 0x6e, 0x76,
  0x5f, 0x32, 0x64, 0x00, 0xcc, 0xd5, 0xff, 0xff, 0xc2, 0xd6, 0xff, 0xff,
  0x04, 0x00, 0x00, 0x00, 0x40, 0x00, 0x00, 0x00, 0x01, 0x3b, 0x9c, 0xbf,
  0x94, 0x1a, 0x0b, 0xc0, 0xf8, 0xbd, 0x41, 0xbf, 0xc7, 0xc5, 0x82, 0xbe,
  0xb2, 0xa7, 0x9d, 0x3f, 0x4a, 0xd9, 0x4c, 0xbf, 0x0f, 0x3f, 0x98, 0xbf,
  0x02, 0xb5, 0x6f, 0xbf, 0x45, 0x17, 0xcf, 0xbf, 0xbf, 0x07, 0xc7, 0x3f,
  0xa5, 0x52, 0x07, 0xc0, 0xbb, 0xd1, 0x45, 0x40, 0xd4, 0xbb, 0x9c, 0xbd,
  0xcc, 0x24, 0x14, 0xc0, 0x3d, 0x91, 0x0c, 0x40, 0x34, 0xa6, 0x9a, 0xbd,
  0x6a, 0xd6, 0xff, 0xff, 0x10, 0x00, 0x00, 0x00, 0x0a, 0x00, 0x00, 0x00,
  0x10, 0x00, 0x00, 0x00, 0x20, 0x00, 0x00, 0x00, 0x01, 0x00, 0x00, 0x00,
  0x10, 0x00, 0x00, 0x00, 0x0d, 0x00, 0x00, 0x00, 0x73, 0x74, 0x64, 0x2e,
  0x63, 0x6f, 0x6e, 0x73, 0x74, 0x61, 0x6e, 0x74, 0x31, 0x00, 0x00, 0x00,
  0x4c, 0xd6, 0xff, 0xff, 0x42, 0xd7, 0xff, 0xff, 0x04, 0x00, 0x00, 0x00,
  0x20, 0x00, 0x00, 0x00, 0xf8, 0x49, 0x9b, 0xbe, 0xf4, 0xd1, 0x2f, 0xc0,
  0xc1, 0x33, 0x35, 0xc0, 0xde, 0x14, 0x63, 0xbd, 0x27, 0x29, 0x51, 0xbe,
  0x35, 0x70, 0x20, 0xc0, 0x9f, 0xcb, 0x52, 0x3f, 0x53, 0x4b, 0x42, 0xc0,
  0xca, 0xd6, 0xff, 0xff, 0x10, 0x00, 0x00, 0x00, 0x09, 0x00, 0x00, 0x00,
  0x10, 0x00, 0x00, 0x00, 0x20, 0x00, 0x00, 0x00, 0x01, 0x00, 0x00, 0x00,
  0x08, 0x00, 0x00, 0x00, 0x0c, 0x00, 0x00, 0x00, 0x73, 0x74, 0x64, 0x2e,
  0x63, 0x6f, 0x6e, 0x73, 0x74, 0x61, 0x6e, 0x74, 0x00, 0x00, 0x00, 0x00,
  0xac, 0xd6, 0xff, 0xff, 0xa2, 0xd7, 0xff, 0xff, 0x04, 0x00, 0x00, 0x00,
  0x00, 0x08, 0x00, 0x00, 0x61, 0x3e, 0x80, 0xbe, 0x78, 0x34, 0x4f, 0xbe,
  0xfb, 0x1e, 0x03, 0xbe, 0x1b, 0x7d, 0xb1, 0xbd, 0xef, 0x11, 0x8a, 0xbe,
  0x92, 0x58, 0xa5, 0xbe, 0x4d, 0x36, 0x69, 0x3d, 0x2e, 0xd0, 0x8c, 0xbe,
  0x37, 0xbf, 0x8e, 0xbf, 0x5d, 0xe5, 0x61, 0xbf, 0xee, 0x3b, 0x92, 0x3e,
  0x86, 0x8f, 0xd0, 0xbd, 0x78, 0xc3, 0x3c, 0xbe, 0x4b, 0x42, 0x22, 0xbe,
  0x38, 0xd6, 0x0a, 0xbd, 0xdd, 0x77, 0x59, 0x3e, 0x85, 0x0d, 0xc9, 0x3d,
  0x5f, 0x0f, 0x36, 0x3d, 0x59, 0x82, 0x41, 0x3e, 0x7c, 0x68, 0x6f, 0xbe,
  0x5a, 0x7d, 0x99, 0xbc, 0xe0, 0x34, 0x29, 0x3e, 0xfe, 0xe3, 0x5f, 0x3e,
  0x46, 0x2f, 0xa2, 0x3e, 0x51, 0xec, 0x5f, 0x3e, 0x27, 0x71, 0x50, 0x3e,
  0x1b, 0x91, 0xd7, 0xbe, 0xc1, 0xc9, 0x88, 0xbe, 0x3b, 0x77, 0xd8, 0xbd,
  0xb2, 0xb2, 0x88, 0x3d, 0x21, 0xf1, 0x38, 0x3d, 0x4b, 0xf5, 0x0a, 0xbf,
  0x1a, 0xdf, 0x9e, 0x3c, 0xc1, 0x8f, 0x0e, 0x3e, 0xa7, 0x1e, 0x50, 0x3e,
  0xb6, 0x85, 0x79, 0x3d, 0xf3, 0x61, 0x97, 0x3c, 0xc6, 0xf2, 0xfc, 0x3d,
  0x9a, 0xd6, 0xf9, 0xbc, 0xc6, 0x0d, 0x78, 0xbe, 0x1b, 0xd5, 0x01, 0xbd,
  0x23, 0x32, 0x83, 0x3e, 0xde, 0x02, 0x33, 0x3e, 0x6d, 0xec, 0x3f, 0xbd,
  0x54, 0x05, 0xd2, 0x3c, 0x1a, 0xb8, 0xba, 0x3c, 0xce, 0x78, 0x37, 0xbf,
  0x8b, 0x7a, 0xa8, 0x3d, 0xd9, 0x4c, 0xee, 0xbe, 0x77, 0xe6, 0xbc, 0xbe,
  0x4f, 0x6b, 0x48, 0x3d, 0xfb, 0x48, 0x00, 0xbe, 0x86, 0xa0, 0x83, 0x3c,
  0x05, 0x84, 0x14, 0x3f, 0x17, 0x59, 0x1b, 0xbf, 0xf1, 0x70, 0x91, 0x3e,
  0x6d, 0x6b, 0xb0, 0xbe, 0xd8, 0x3c, 0x45, 0xbf, 0x7e, 0x9a, 0x93, 0x3a,
  0x32, 0xf1, 0x1e, 0xbe, 0x6a, 0x7f, 0x53, 0xbd, 0x3a, 0x26, 0x6b, 0x3e,
  0x29, 0x03, 0xa2, 0xbd, 0xb8, 0x71, 0x3b, 0x3e, 0xa8, 0xe6, 0xdd, 0xbd,
  0x6a, 0x57, 0xb9, 0xbd, 0xe6, 0x7c, 0xc5, 0x3e, 0x9a, 0x43, 0x85, 0xbe,
  0x7d, 0xd3, 0x6c, 0xbe, 0xd9, 0x03, 0x33, 0x3e, 0x48, 0x15, 0x38, 0xbd,
  0xac, 0xf4, 0x47, 0xbe, 0xd2, 0x10, 0xb4, 0x3d, 0xa8, 0x25, 0xe9, 0xbd,
  0xc6, 0x9e, 0xba, 0xbd, 0xfa, 0xbf, 0xb9, 0xbe, 0x2f, 0xd0, 0x44, 0xbe,
  0xf7, 0xfb, 0xad, 0x3d, 0xbc, 0x18, 0x1e, 0x3e, 0xd5, 0xdf, 0x38, 0x3f,
  0xf3, 0xb9, 0xd6, 0x3e, 0x3c, 0x64, 0x9a, 0x3c, 0x67, 0x46, 0x95, 0xbd,
  0x6d, 0x93, 0x34, 0xbe, 0xb4, 0x92, 0xed, 0xbd, 0x7d, 0x90, 0x82, 0x3e,
  0x26, 0xb4, 0x92, 0xbd, 0x84, 0x52, 0x8e, 0xbd, 0x53, 0x6d, 0x4c, 0xbe,
  0xde, 0xc5, 0x15, 0x3d, 0x1b, 0x69, 0xe9, 0x3c, 0x45, 0x6f, 0x34, 0xbe,
  0xc8, 0x18, 0xdb, 0xbd, 0xa9, 0x72, 0x46, 0xbd, 0xf9, 0x59, 0xf4, 0x3a,
  0xac, 0x89, 0x10, 0xbe, 0x96, 0xe2, 0xf9, 0x3d, 0x04, 0x79, 0x26, 0x3d,
  0xd2, 0x0e, 0xae, 0x3e, 0xbd, 0xa5, 0xbc, 0xbe, 0xf8, 0x14, 0xc7, 0xbe,
  0xa7, 0xa3, 0x5d, 0xbc, 0xb3, 0xd1, 0x9b, 0xbd, 0x1a, 0x37, 0x17, 0x3c,
  0xe8, 0x8e, 0xd3, 0xbd, 0xbe, 0xfc, 0x49, 0xbd, 0xbc, 0x70, 0xd7, 0x3e,
  0x1b, 0xc7, 0xd6, 0xbe, 0x24, 0x63, 0xb9, 0xbe, 0x54, 0x25, 0xf9, 0x3d,
  0x58, 0xa0, 0x86, 0x3e, 0xbb, 0xbc, 0xdd, 0x3e, 0x71, 0xb8, 0x08, 0x3b,
  0xef, 0xe9, 0x37, 0x3e, 0xc3, 0xa7, 0x22, 0x3d, 0x8e, 0xee, 0xaf, 0xbe,
  0xec, 0xbd, 0x26, 0xbe, 0x3a, 0x0b, 0x15, 0x3e, 0x7f, 0x75, 0x56, 0xbd,
  0x6c, 0x86, 0x8f, 0xbe, 0xa7, 0x8c, 0x70, 0x3e, 0xd2, 0xbc, 0x0e, 0x3e,
  0xf6, 0x07, 0xa0, 0xbd, 0x83, 0x1d, 0x0d, 0xbe, 0x3d, 0x91, 0xe1, 0xbd,
  0x9e, 0x27, 0x7c, 0x3e, 0x6a, 0xa6, 0x79, 0xbd, 0x24, 0x94, 0x8b, 0x3e,
  0x81, 0xfb, 0x02, 0xbe, 0x06, 0xe5, 0x1e, 0x3d, 0xb3, 0x90, 0x0b, 0xbd,
  0x53, 0x65, 0xee, 0x3d, 0x88, 0xeb, 0x9c, 0xbe, 0x28, 0xfd, 0x9e, 0xbe,
  0x7c, 0x0e, 0x17, 0xbe, 0x75, 0xbb, 0x1c, 0xbd, 0xda, 0xc9, 0xf3, 0xbc,
  0x78, 0x10, 0x92, 0x3c, 0x0f, 0x70, 0xaa, 0x3e, 0xb9, 0x97, 0x88, 0xbd,
  0x47, 0xc5, 0x83, 0xbe, 0xaf, 0xf5, 0xcd, 0xbe, 0xa6, 0x44, 0x4d, 0xbe,
  0x0a, 0x57, 0x58, 0xbd, 0x03, 0x01, 0x88, 0xbd, 0xf5, 0xdb, 0x31, 0xbe,
  0x21, 0xce, 0x9a, 0xbc, 0x86, 0xfb, 0xd0, 0x3d, 0x06, 0x56, 0xa7, 0xbe,
  0x14, 0x1f, 0x1c, 0xbe, 0x69, 0x49, 0x3c, 0xbe, 0x1b, 0xe3, 0xd4, 0x3c,
  0xe6, 0x99, 0x47, 0xbd, 0x50, 0x4d, 0xc4, 0x3d, 0x8a, 0xb7, 0xdb, 0x3d,
  0x6f, 0xd9, 0x0b, 0x3e, 0x94, 0x27, 0x93, 0xbe, 0x21, 0x5f, 0xe8, 0xbd,
  0x21, 0xe9, 0x21, 0xbe, 0xe7, 0x01, 0x3f, 0xbd, 0x9f, 0xc8, 0x81, 0x3e,
  0x52, 0x87, 0x8d, 0x3c, 0xc1, 0x54, 0x59, 0x3d, 0xf7, 0x3f, 0xa3, 0xbe,
  0xd1, 0xf5, 0x04, 0xbe, 0xe7, 0x2c, 0x93, 0x3d, 0xcd, 0x9b, 0x95, 0x3e,
  0xe1, 0x77, 0x11, 0xbd, 0x70, 0x4e, 0xb0, 0xbc, 0x1d, 0x82, 0x75, 0x3e,
  0x7f, 0x71, 0xf5, 0xbe, 0x89, 0x46, 0x1b, 0xbe, 0xf1, 0x2f, 0xf4, 0xbd,
  0xde, 0x6f, 0x0e, 0x3d, 0x4a, 0xa4, 0x83, 0xbd, 0x3b, 0x48, 0xbf, 0xbe,
  0xae, 0x9b, 0x4e, 0x3c, 0xed, 0x44, 0x0a, 0xbe, 0x4b, 0x21, 0x3e, 0xbe,
  0xd4, 0x73, 0x03, 0xbb, 0x42, 0x9e, 0xb1, 0xbc, 0x01, 0x49, 0x91, 0xbd,
  0x77, 0x4c, 0x88, 0xbe, 0xb9, 0x2e, 0x4c, 0x3d, 0xe4, 0x0b, 0x1d, 0xbf,
  0xc9, 0x9c, 0xf4, 0xbe, 0xa3, 0x36, 0x88, 0x3e, 0x30, 0x66, 0x11, 0x3c,
  0xfe, 0xb1, 0x17, 0xbe, 0x19, 0x64, 0x5b, 0x3d, 0xe0, 0xe4, 0x2e, 0xbe,
  0x69, 0x99, 0xe8, 0x3e, 0x21, 0xb6, 0x8b, 0xbe, 0x11, 0x1d, 0x02, 0xbe,
  0x63, 0x54, 0xa5, 0x3e, 0x31, 0x87, 0x9d, 0x3c, 0x7e, 0x38, 0x29, 0x3b,
  0x01, 0x48, 0x92, 0x3e, 0x7a, 0x90, 0x02, 0xbe, 0x4b, 0xf0, 0x01, 0x3f,
  0x33, 0xcc, 0x88, 0xbe, 0x0a, 0xe7, 0xa1, 0xbd, 0x19, 0x68, 0xbe, 0xbd,
  0xfb, 0x9d, 0xae, 0xbd, 0x58, 0xb5, 0xb0, 0xbd, 0xfa, 0x73, 0xec, 0x3e,
  0x55, 0x76, 0xc6, 0x3c, 0x58, 0xfc, 0x45, 0xbc, 0x35, 0xb2, 0x11, 0x3e,
  0x22, 0xc0, 0xfb, 0xbd, 0x41, 0xc5, 0xee, 0xbd, 0x3e, 0xab, 0xe9, 0xbd,
  0x30, 0xb9, 0xbb, 0xbd, 0x36, 0xfa, 0x1c, 0x3e, 0xf6, 0x4f, 0xf3, 0xbd,
  0x44, 0x1e, 0x52, 0xbe, 0x1e, 0x37, 0xb2, 0x3d, 0xea, 0x42, 0xd8, 0x3d,
  0x5d, 0xb7, 0x9b, 0x3d, 0xbf, 0x49, 0x59, 0x3b, 0x46, 0x3f, 0x66, 0xbd,
  0x2c, 0x7d, 0xcc, 0x3d, 0x4f, 0xb2, 0x58, 0x3c, 0x46, 0xb1, 0x2b, 0xbe,
  0x31, 0x1c, 0x8a, 0xbe, 0xc0, 0x2e, 0x2a, 0xbe, 0x39, 0x4d, 0x12, 0xbe,
  0x39, 0x43, 0x58, 0xbe, 0xb3, 0x6d, 0x60, 0xbe, 0xee, 0x3a, 0x0d, 0xbf,
  0xbb, 0x26, 0x1a, 0x3e, 0x48, 0x24, 0x93, 0xbe, 0x72, 0x79, 0x04, 0xbf,
  0x4e, 0xfd, 0x3b, 0xbe, 0x66, 0x00, 0x1f, 0x3c, 0xe5, 0x89, 0x11, 0x3d,
  0x93, 0x4a, 0x1b, 0xbe, 0x0d, 0xea, 0x15, 0xbe, 0x4e, 0xa8, 0x96, 0xbc,
  0x76, 0xa2, 0x22, 0x3f, 0xf2, 0x25, 0x8d, 0xbe, 0x72, 0x2f, 0x82, 0xbe,
  0x2c, 0xec, 0xa6, 0x3e, 0xed, 0xf9, 0xef, 0xbd, 0xed, 0xc4, 0xe7, 0xbd,
  0x11, 0x65, 0x87, 0x3d, 0xa4, 0x92, 0x05, 0x3e, 0x94, 0x14, 0x47, 0x3e,
  0x97, 0x6d, 0x15, 0x3e, 0x4a, 0xd6, 0x85, 0x3e, 0xa7, 0x81, 0x07, 0xbf,
  0x61, 0x02, 0x0c, 0xbe, 0xc6, 0xd0, 0xe6, 0xbd, 0xb9, 0x83, 0x9e, 0x3d,
  0xad, 0x21, 0xa7, 0x3d, 0xa0, 0xe5, 0x9b, 0xbe, 0x32, 0xad, 0xe2, 0xbc,
  0xde, 0x0f, 0x5f, 0xbd, 0x4c, 0x28, 0x07, 0x3d, 0x9a, 0xbc, 0x24, 0x3c,
  0xec, 0xda, 0xb0, 0xbd, 0xce, 0xaa, 0x18, 0xbe, 0x38, 0x65, 0x98, 0xbe,
  0xa6, 0x25, 0xf0, 0xbd, 0x1c, 0xae, 0x33, 0x3d, 0x52, 0x59, 0x57, 0xbc,
  0x5e, 0x5a, 0x59, 0x3e, 0xd0, 0x8d, 0x21, 0x3c, 0xcf, 0xa7, 0xe3, 0xbc,
  0x66, 0xad, 0x9a, 0x3d, 0x89, 0x35, 0xad, 0xbe, 0x10, 0x91, 0x90, 0x3d,
  0x64, 0xe7, 0x64, 0xbe, 0x35, 0xab, 0x9a, 0x3e, 0xa5, 0x73, 0x24, 0x3f,
  0x0e, 0x20, 0xea, 0xbc, 0x9e, 0x52, 0x94, 0xbc, 0xc4, 0x7d, 0x8d, 0x3e,
  0x62, 0x9f, 0x0e, 0xbf, 0xe3, 0x60, 0x47, 0x3e, 0x17, 0x41, 0x10, 0xbe,
  0x87, 0x18, 0x9b, 0xbe, 0x8b, 0x51, 0x3a, 0xbe, 0xf5, 0xe5, 0xca, 0xbc,
  0x6a, 0xad, 0x66, 0xbc, 0x45, 0x4c, 0xbe, 0x3d, 0xee, 0xf3, 0xe8, 0xbe,
  0xb7, 0xe0, 0x8f, 0xbd, 0xee, 0x8b, 0xb2, 0xbd, 0x31, 0xc2, 0x2b, 0xbe,
  0x42, 0xb3, 0xde, 0xbd, 0x4e, 0x48, 0xa0, 0xbc, 0x8d, 0xb9, 0xcb, 0xbd,
  0xa9, 0x82, 0x8a, 0xbe, 0xa8, 0x2a, 0x5a, 0xbe, 0xf5, 0x90, 0x4e, 0xbd,
  0x41, 0x47, 0x21, 0xbe, 0x53, 0xaa, 0x1f, 0x3d, 0xff, 0x80, 0xf0, 0xbb,
  0x1b, 0x2f, 0x38, 0x3e, 0x4f, 0xcd, 0x1f, 0x3e, 0x76, 0x24, 0xaa, 0xbe,
  0x58, 0x5f, 0x69, 0xbe, 0x90, 0x53, 0x34, 0xbe, 0x3b, 0x5e, 0x91, 0xbd,
  0x8b, 0x8d, 0x64, 0xbe, 0x28, 0x49, 0xeb, 0xbd, 0x93, 0x89, 0x49, 0x3e,
  0x7b, 0x03, 0x91, 0x3e, 0x31, 0x38, 0x32, 0xbe, 0x3b, 0xa9, 0x1f, 0xbe,
  0xa7, 0x52, 0x09, 0xbe, 0x41, 0xfe, 0x0f, 0x3e, 0xc4, 0x1f, 0x0f, 0x3e,
  0x37, 0x15, 0x14, 0xbd, 0xb4, 0x08, 0xb0, 0xbc, 0x20, 0xd3, 0x65, 0xbd,
  0x38, 0x87, 0x17, 0x3e, 0x2f, 0x74, 0x2a, 0x3c, 0x2f, 0x4b, 0x85, 0xbe,
  0xf5, 0xdc, 0xec, 0xbd, 0x5b, 0xac, 0x88, 0xbe, 0x99, 0xaa, 0x02, 0xbd,
  0x85, 0x9d, 0xce, 0xbd, 0x95, 0x05, 0x76, 0xbd, 0xd7, 0xce, 0x3d, 0x3e,
  0xb0, 0x3f, 0xf0, 0xbd, 0xe1, 0x2f, 0x0a, 0x3e, 0xfa, 0x35, 0xc3, 0x3c,
  0xc0, 0x7e, 0x21, 0xbd, 0x75, 0xd3, 0xe1, 0xbc, 0xf2, 0x06, 0x81, 0xbd,
  0xfc, 0x44, 0xb5, 0xbd, 0xc8, 0x6b, 0xbe, 0xbc, 0x4e, 0x8f, 0xf3, 0xbc,
  0xfc, 0xf7, 0x37, 0xbd, 0x16, 0xbe, 0xa4, 0x3d, 0xed, 0xf6, 0xf3, 0x3e,
  0xed, 0x6e, 0xfa, 0x3d, 0x55, 0xad, 0xdd, 0xbc, 0x51, 0xbf, 0x83, 0xbd,
  0xf3, 0xa1, 0x29, 0x3f, 0x00, 0x2b, 0x5d, 0xbd, 0x83, 0xae, 0xf1, 0x3c,
  0x17, 0xdd, 0x48, 0x3e, 0xca, 0xfb, 0xa5, 0x3d, 0xb7, 0xcc, 0x11, 0x3d,
  0x3d, 0x04, 0x09, 0xbc, 0x52, 0x44, 0x0f, 0x3d, 0x91, 0x69, 0x07, 0x3e,
  0x8d, 0x67, 0xd6, 0xbd, 0xb5, 0xce, 0xb5, 0xbd, 0x7a, 0xe3, 0x5d, 0x3e,
  0xae, 0x5c, 0x09, 0xbe, 0x6c, 0x00, 0xf6, 0x3d, 0x34, 0xe4, 0x21, 0xbe,
  0xad, 0x93, 0x18, 0xbe, 0x2c, 0xf5, 0xf0, 0x3d, 0xd8, 0x7c, 0xc9, 0xbd,
  0x5b, 0xa5, 0x2e, 0xbe, 0x51, 0x89, 0x62, 0x3e, 0xeb, 0x6f, 0x5e, 0x3c,
  0x05, 0xfe, 0xab, 0xbd, 0x57, 0xa2, 0x61, 0xbe, 0x0a, 0xd3, 0x56, 0xbe,
  0xe2, 0xa4, 0x4e, 0x3d, 0x2f, 0x49, 0xaa, 0xbc, 0xea, 0x99, 0x98, 0x3c,
  0xd1, 0xbd, 0xf8, 0xbe, 0x0d, 0xf8, 0xb1, 0xbe, 0xbd, 0x8e, 0xeb, 0xbe,
  0x40, 0xe0, 0x8b, 0xbe, 0x96, 0x55, 0xc5, 0xbd, 0x78, 0xf1, 0x88, 0xbe,
  0x03, 0x77, 0x9c, 0xbd, 0x24, 0x09, 0x08, 0xbe, 0xfa, 0x64, 0x00, 0xbf,
  0x70, 0x63, 0xe2, 0xbe, 0x02, 0xb4, 0x01, 0xbf, 0xd9, 0xbf, 0xdb, 0xbe,
  0x0e, 0x91, 0x75, 0xbe, 0xb5, 0x53, 0x37, 0xbe, 0x13, 0x3c, 0xf2, 0x3b,
  0x1e, 0x14, 0xd0, 0xbe, 0x53, 0xdb, 0x1a, 0x3e, 0xd8, 0x3e, 0xfd, 0xbc,
  0xf1, 0x09, 0x6f, 0x3b, 0x59, 0xd1, 0x0c, 0xbd, 0x9d, 0x07, 0xf6, 0xbd,
  0x6b, 0x47, 0x01, 0xbe, 0x48, 0xbe, 0xed, 0x3e, 0x9f, 0xdf, 0xfd, 0x3e,
  0x34, 0xdf, 0xb8, 0xbc, 0xb7, 0x53, 0x89, 0x3c, 0x0e, 0x83, 0xa5, 0xbe,
  0xe1, 0x56, 0x8f, 0xbd, 0xc1, 0xc7, 0x9b, 0xbd, 0x1f, 0xf8, 0x50, 0x3e,
  0x03, 0x94, 0x88, 0xbc, 0xdc, 0xbf, 0xf2, 0xbe, 0x82, 0x59, 0xc5, 0x3b,
  0xb1, 0x6c, 0x00, 0x3e, 0x3c, 0x2d, 0x47, 0xbe, 0xc7, 0x16, 0xaa, 0xbc,
  0x75, 0x8b, 0x21, 0xbd, 0xaa, 0x7a, 0x78, 0xbc, 0xcf, 0x10, 0x62, 0xbd,
  0xab, 0xbe, 0xb1, 0xbd, 0xe8, 0xec, 0x8f, 0xbe, 0x2e, 0x4b, 0x82, 0xbe,
  0xb9, 0xa3, 0xe4, 0x3e, 0x4c, 0xa4, 0xf5, 0xbd, 0xf2, 0x59, 0x8b, 0xbd,
  0xcf, 0xfe, 0xc4, 0xbe, 0xdb, 0x79, 0xe5, 0xbd, 0x40, 0xfe, 0x85, 0xbd,
  0x2f, 0xf0, 0xb9, 0xbe, 0x6a, 0x2d, 0xe6, 0xbe, 0xfd, 0x78, 0xb4, 0xbd,
  0x74, 0xa7, 0x9b, 0xbd, 0xa5, 0x64, 0xeb, 0xbd, 0x4b, 0x53, 0x38, 0xbe,
  0xd2, 0x4a, 0xf5, 0xbd, 0x9b, 0x9e, 0x1e, 0xbe, 0x32, 0xf9, 0x27, 0xbe,
  0xcf, 0xdb, 0x2f, 0xbe, 0xd2, 0xd9, 0x34, 0xbe, 0x26, 0xfb, 0x24, 0xbd,
  0xa7, 0x83, 0x88, 0xbd, 0x5c, 0xfa, 0x2f, 0xbe, 0x0a, 0xc9, 0x98, 0xbc,
  0x1c, 0xa5, 0xc4, 0xbd, 0xba, 0x1d, 0x99, 0x3e, 0xd1, 0xca, 0xad, 0x3e,
  0x2f, 0x29, 0x41, 0x3e, 0xae, 0x1a, 0x01, 0x3c, 0x57, 0xfd, 0xbd, 0xbc,
  0xe8, 0x31, 0x34, 0xbe, 0xda, 0x8c, 0xf9, 0x3c, 0xfa, 0xe6, 0x0d, 0xbe,
  0x39, 0xe0, 0x91, 0x3e, 0xa7, 0x8f, 0xdf, 0x3e, 0x5d, 0x82, 0x42, 0x3d,
  0x9d, 0x17, 0xca, 0x3d, 0x0f, 0xca, 0x7c, 0x3d, 0x31, 0x58, 0xe9, 0x3e,
  0xd0, 0x70, 0x2a, 0xbc, 0xed, 0x28, 0x73, 0x3e, 0xdd, 0x13, 0xd9, 0x3d,
  0xbd, 0x8a, 0x8a, 0xbd, 0xe0, 0x7c, 0x1e, 0x3e, 0xb6, 0xf9, 0xb6, 0x3d,
  0x38, 0xf4, 0x23, 0x3e, 0xce, 0xb5, 0x2c, 0xbe, 0xf4, 0xd5, 0x58, 0x3e,
  0x21, 0x12, 0x04, 0x3d, 0x07, 0xc4, 0x12, 0xbe, 0x62, 0xbb, 0x97, 0x3d,
  0xb0, 0x43, 0xd6, 0xbc, 0xc9, 0xf3, 0xfb, 0xbb, 0x32, 0x97, 0xa9, 0x3c,
  0x97, 0xd9, 0xfe, 0x3d, 0xf3, 0xc7, 0xe2, 0xbc, 0x4b, 0xcd, 0xaa, 0x3d,
  0x1e, 0xc0, 0x96, 0xbb, 0x3e, 0xf8, 0x89, 0xbb, 0xc9, 0x8a, 0x03, 0x3d,
  0x60, 0x5e, 0x84, 0xbb, 0xbb, 0xae, 0xdf, 0x3d, 0x2b, 0x58, 0x3c, 0xbd,
  0x8e, 0x8c, 0x35, 0x3e, 0xa3, 0xec, 0x37, 0x3e, 0xe2, 0x83, 0xa1, 0x3c,
  0x77, 0xbf, 0x9c, 0xbd, 0xfe, 0x4d, 0x5e, 0x3d, 0xd3, 0x5a, 0xea, 0x3d,
  0x35, 0xa1, 0x6a, 0xbd, 0x61, 0x96, 0x42, 0xbd, 0x9a, 0x98, 0x26, 0xbd,
  0x80, 0x71, 0x95, 0x3d, 0xe0, 0x27, 0x73, 0x3e, 0x99, 0xfe, 0xd1, 0x3d,
  0xcc, 0xef, 0x7c, 0x3e, 0x4d, 0xd7, 0xd6, 0xbe, 0x73, 0xcb, 0xa9, 0xbe,
  0x18, 0xab, 0xe9, 0xbd, 0x13, 0xb0, 0xf0, 0x3d, 0xa6, 0xe5, 0x75, 0x3e,
  0x5c, 0xae, 0xc1, 0xbd, 0x66, 0x38, 0x4b, 0x3e, 0xd1, 0xf5, 0x6c, 0xbd,
  0xe9, 0x99, 0x96, 0xbe, 0x13, 0x50, 0xbe, 0xbe, 0xfd, 0xda, 0x0d, 0x3f,
  0xe5, 0x0d, 0x1f, 0x3e, 0x15, 0x68, 0xeb, 0x3c, 0x9f, 0xc0, 0x9d, 0x3e,
  0x99, 0x0c, 0x9c, 0x3d, 0x27, 0x98, 0x11, 0xbe, 0xae, 0x03, 0x44, 0xbe,
  0x7e, 0x9b, 0x9b, 0xbe, 0x22, 0x32, 0xce, 0x3b, 0x7b, 0x66, 0xc4, 0x3d,
  0x1f, 0x62, 0x6d, 0x3d, 0x65, 0x0e, 0x29, 0x3e, 0x98, 0x61, 0x85, 0xba,
  0x44, 0xd6, 0xb1, 0xbd, 0x38, 0xe2, 0x02, 0xbe, 0xf9, 0x18, 0x89, 0xbe,
  0xeb, 0xf0, 0x51, 0x3e, 0x43, 0xa3, 0xa7, 0xbd, 0x55, 0x95, 0x94, 0x3e,
  0x0a, 0xdf, 0xff, 0xff, 0x10, 0x00, 0x00, 0x00, 0x08, 0x00, 0x00, 0x00,
  0x1c, 0x00, 0x00, 0x00, 0x38, 0x00, 0x00, 0x00, 0x04, 0x00, 0x00, 0x00,
  0x10, 0x00, 0x00, 0x00, 0x04, 0x00, 0x00, 0x00, 0x01, 0x00, 0x00, 0x00,
  0x08, 0x00, 0x00, 0x00, 0x1a, 0x00, 0x00, 0x00, 0x73, 0x65, 0x71, 0x75,
  0x65, 0x6e, 0x74, 0x69, 0x61, 0x6c, 0x2f, 0x63, 0x6f, 0x6e, 0x76, 0x32,
  0x64, 0x5f, 0x31, 0x2f, 0x43, 0x6f, 0x6e, 0x76, 0x32, 0x44, 0x00, 0x00,
  0x04, 0xdf, 0xff, 0xff, 0xfa, 0xdf, 0xff, 0xff, 0x04, 0x00, 0x00, 0x00,
  0x80, 0x01, 0x00, 0x00, 0x30, 0x60, 0xb8, 0x3d, 0xbb, 0x29, 0x88, 0x3e,
  0xae, 0xae, 0xa8, 0x3e, 0xa5, 0xe5, 0x09, 0x3e, 0x3f, 0x2d, 0x24, 0xbe,
  0xc9, 0xea, 0x01, 0x3e, 0xa6, 0xcd, 0x94, 0xbd, 0xf2, 0x72, 0xb2, 0x3d,
  0x5b, 0x1b, 0xaf, 0xbe, 0x2b, 0x78, 0xa0, 0x3b, 0x78, 0xed, 0x3b, 0xbe,
  0xe9, 0x55, 0x50, 0xbe, 0x93, 0xe8, 0x62, 0x3e, 0x67, 0xc7, 0xdb, 0x3e,
  0xe7, 0x5a, 0xc5, 0xbd, 0xb1, 0x0b, 0x43, 0x3d, 0xe2, 0xb5, 0xfe, 0x3c,
  0xc6, 0x7a, 0xaa, 0xbd, 0x1b, 0x07, 0x03, 0xbe, 0x70, 0xb4, 0x9e, 0xbe,
  0x97, 0x66, 0x29, 0x3e, 0xd1, 0x6e, 0x8a, 0xbd, 0x05, 0x26, 0x07, 0xbe,
  0x5f, 0xf3, 0xd7, 0x3b, 0x0f, 0x83, 0xfc, 0xbd, 0x75, 0x13, 0x28, 0x3e,
  0x44, 0x41, 0x97, 0xbe, 0x0e, 0x22, 0x6c, 0xbd, 0x3a, 0xef, 0xdd, 0x3c,
  0x8a, 0x51, 0x2a, 0xbe, 0xd9, 0x6e, 0x78, 0x3c, 0xdc, 0x82, 0x06, 0xbe,
  0x3a, 0x6f, 0x9b, 0x3c, 0x7e, 0x3d, 0x72, 0x3e, 0x2c, 0xb8, 0x9e, 0xbc,
  0x9a, 0xca, 0xec, 0x3e, 0xc8, 0x2d, 0x30, 0x3d, 0x9a, 0x76, 0xcc, 0xbd,
  0x9b, 0x35, 0x40, 0x3d, 0x7c, 0x03, 0xfd, 0x3c, 0xe6, 0x75, 0xc5, 0xbd,
  0xaa, 0x2e, 0x5c, 0x3d, 0x77, 0xc4, 0x3f, 0x3b, 0x14, 0x4a, 0x73, 0xbd,
  0xdf, 0xbb, 0x34, 0x3d, 0xed, 0x35, 0x1b, 0x3c, 0xf4, 0x6f, 0x04, 0xbc,
  0x4f, 0x7b, 0xb7, 0x3c, 0xb2, 0xed, 0xa0, 0xbd, 0xb9, 0x75, 0x12, 0xbd,
  0xd3, 0xa3, 0x4b, 0x3e, 0x6c, 0xaa, 0x8d, 0xbd, 0x61, 0x96, 0x82, 0xbc,
  0x5c, 0xc0, 0xe3, 0x3d, 0x2e, 0x17, 0x9c, 0xbd, 0x77, 0xd8, 0x9b, 0x3d,
  0xfe, 0xf7, 0x5d, 0x3d, 0x57, 0x2f, 0x8a, 0xbd, 0x8c, 0x3a, 0xed, 0x3d,
  0xc7, 0x46, 0xcc, 0x3d, 0x28, 0xe4, 0x9e, 0xbe, 0x78, 0x7f, 0x0b, 0x3e,
  0xb9, 0xea, 0x18, 0x3e, 0x0c, 0x82, 0x3f, 0xbe, 0xf4, 0x2a, 0x9b, 0x3e,
  0x92, 0xb6, 0x89, 0x3d, 0xa7, 0xc3, 0xf0, 0x3e, 0xc6, 0x0d, 0xbd, 0xbe,
  0x86, 0x26, 0x60, 0xbe, 0x1b, 0xa6, 0xbf, 0x3d, 0x3f, 0x44, 0x03, 0xbd,
  0xb8, 0xb6, 0xb8, 0xbc, 0xbc, 0x30, 0x22, 0x3e, 0xfd, 0x23, 0xe2, 0xbd,
  0xe7, 0x32, 0x9b, 0xbd, 0x2f, 0x14, 0x22, 0x3f, 0x0c, 0x68, 0x4e, 0x3e,
  0x22, 0x9b, 0xcd, 0x3d, 0xc3, 0x49, 0x39, 0xbd, 0x76, 0xf3, 0xad, 0x3d,
  0xf2, 0x3e, 0xbf, 0xbd, 0xdc, 0x19, 0xa4, 0xbe, 0x90, 0x17, 0xb2, 0x3b,
  0xf4, 0x7c, 0x95, 0xbd, 0xaa, 0x86, 0x37, 0x3d, 0x5c, 0xc6, 0x68, 0xbd,
  0xff, 0x22, 0x70, 0xbd, 0x9c, 0x17, 0xb3, 0xbe, 0x10, 0xf2, 0xd6, 0xbe,
  0x07, 0x70, 0xc0, 0xbe, 0x41, 0xbc, 0x73, 0x3e, 0x63, 0x60, 0x9b, 0x3e,
  0xf4, 0x72, 0x82, 0x3e, 0xc8, 0x36, 0x08, 0x3e, 0x41, 0x08, 0x33, 0x3e,
  0xb5, 0xbd, 0x3d, 0x3e, 0xe2, 0xe0, 0xff, 0xff, 0x10, 0x00, 0x00, 0x00,
  0x07, 0x00, 0x00, 0x00, 0x1c, 0x00, 0x00, 0x00, 0x38, 0x00, 0x00, 0x00,
  0x04, 0x00, 0x00, 0x00, 0x08, 0x00, 0x00, 0x00, 0x04, 0x00, 0x00, 0x00,
  0x03, 0x00, 0x00, 0x00, 0x01, 0x00, 0x00, 0x00, 0x18, 0x00, 0x00, 0x00,
  0x73, 0x65, 0x71, 0x75, 0x65, 0x6e, 0x74, 0x69, 0x61, 0x6c, 0x2f, 0x63,
  0x6f, 0x6e, 0x76, 0x32, 0x64, 0x2f, 0x43, 0x6f, 0x6e, 0x76, 0x32, 0x44,
  0x00, 0x00, 0x00, 0x00, 0xdc, 0xe0, 0xff, 0xff, 0xd2, 0xe1, 0xff, 0xff,
  0x04, 0x00, 0x00, 0x00, 0xc0, 0x00, 0x00, 0x00, 0x20, 0x4f, 0xec, 0xbd,
  0xe1, 0xa3, 0x3e, 0x3e, 0x45, 0x7d, 0xcc, 0xbe, 0x4c, 0x0b, 0xfb, 0x3d,
  0x3a, 0x92, 0x8d, 0x3d, 0x90, 0xf6, 0xb0, 0x3d, 0xa9, 0xe7, 0x87, 0xbd,
  0xfb, 0xb1, 0xc0, 0x3e, 0xf1, 0x84, 0xe2, 0x3e, 0x8e, 0xba, 0x36, 0x3c,
  0x1d, 0xa8, 0xb6, 0x3d, 0xfa, 0x57, 0xb1, 0xbe, 0x30, 0x70, 0x26, 0xbe,
  0xd6, 0x24, 0x03, 0xbe, 0xa6, 0xcb, 0x5b, 0x3e, 0xc8, 0xf4, 0x86, 0xbe,
  0x11, 0x42, 0x8d, 0xbd, 0x8d, 0x51, 0x5e, 0x3e, 0x46, 0xa0, 0xdb, 0xbd,
  0x85, 0x18, 0x36, 0x3e, 0x5b, 0x35, 0x78, 0xbe, 0xf8, 0x9c, 0x8f, 0x3d,
  0x17, 0x48, 0x5c, 0x3d, 0x01, 0xf8, 0xc8, 0xbd, 0x6e, 0xa1, 0x17, 0xbf,
  0x1f, 0x75, 0x22, 0x3d, 0x8e, 0x20, 0xe3, 0x3d, 0x8e, 0xfa, 0x55, 0xbe,
  0x40, 0x08, 0xc9, 0xbd, 0x90, 0x40, 0x8b, 0xbd, 0x0f, 0x52, 0x1c, 0xbe,
  0x12, 0x68, 0xa0, 0xbe, 0xad, 0x9d, 0x81, 0xbc, 0x40, 0x83, 0x7d, 0x3e,
  0x62, 0xb0, 0xe6, 0x3d, 0x75, 0x44, 0x5c, 0x3e, 0xac, 0x1f, 0x97, 0x3e,
  0xa8, 0x9d, 0xcf, 0xbc, 0xaa, 0x50, 0x2f, 0x3c, 0x98, 0xca, 0xe5, 0x3d,
  0xc9, 0xad, 0xd0, 0xbe, 0x03, 0x50, 0xe9, 0xbc, 0x55, 0xc1, 0x9f, 0x3d,
  0xd5, 0x86, 0xeb, 0xbd, 0xa1, 0x50, 0x4a, 0xbe, 0x11, 0x62, 0x01, 0xbe,
  0xad, 0x2a, 0xc7, 0xbe, 0x21, 0xd3, 0xbc, 0xbe, 0xfa, 0xe1, 0xff, 0xff,
  0x10, 0x00, 0x00, 0x00, 0x06, 0x00, 0x00, 0x00, 0x14, 0x00, 0x00, 0x00,
  0x30, 0x00, 0x00, 0x00, 0x02, 0x00, 0x00, 0x00, 0x03, 0x00, 0x00, 0x00,
  0x10, 0x00, 0x00, 0x00, 0x19, 0x00, 0x00, 0x00, 0x73, 0x65, 0x71, 0x75,
  0x65, 0x6e, 0x74, 0x69, 0x61, 0x6c, 0x2f, 0x64, 0x65, 0x6e, 0x73, 0x65,
  0x5f, 0x31, 0x2f, 0x4d, 0x61, 0x74, 0x4d, 0x75, 0x6c, 0x00, 0x00, 0x00,
  0xec, 0xe1, 0xff, 0xff, 0xe2, 0xe2, 0xff, 0xff, 0x04, 0x00, 0x00, 0x00,
  0x00, 0x1c, 0x00, 0x00, 0x9b, 0x49, 0x45, 0xbf, 0x64, 0xc3, 0xe3, 0xbd,
  0xce, 0x3c, 0xc3, 0xbe, 0x30, 0x63, 0x80, 0xbd, 0x2b, 0x9d, 0x66, 0x3e,
  0x96, 0x08, 0x1c, 0x3e, 0x40, 0x04, 0x8a, 0xbd, 0x25, 0x7b, 0xcf, 0xbe,
  0xf3, 0x68, 0xc8, 0xbe, 0xc3, 0x12, 0xda, 0x3d, 0xd7, 0x7d, 0x08, 0xbf,
  0xd2, 0x64, 0x7c, 0x3e, 0xe4, 0x1f, 0x7b, 0xbe, 0x66, 0x10, 0x34, 0xbe,
  0x86, 0x6b, 0x01, 0xbd, 0xd7, 0xbc, 0xf9, 0x3d, 0x04, 0x4d, 0x89, 0xbe,
  0xd7, 0x7e, 0x7e, 0xbd, 0xc5, 0x07, 0x0e, 0x3c, 0xce, 0x4a, 0xd9, 0x3d,
  0x0f, 0xc5, 0xf6, 0x3e, 0x14, 0x7b, 0xc0, 0x3e, 0x91, 0xe0, 0x32, 0xbf,
  0xd9, 0x47, 0x8f, 0x3e, 0x6c, 0x81, 0xb4, 0x3e, 0x9d, 0xb0, 0x04, 0xbd,
  0xca, 0xe5, 0xbe, 0xbe, 0xf0, 0xa9, 0x26, 0xbf, 0x4b, 0x8d, 0x1f, 0x3c,
  0xd5, 0x6d, 0x7a, 0x3d, 0xc7, 0x4e, 0x75, 0x3d, 0x22, 0x5b, 0x4f, 0x3e,
  0x0e, 0xfd, 0x17, 0xbe, 0x39, 0x57, 0x96, 0x3d, 0xc8, 0xb8, 0x1d, 0x3e,
  0x9a, 0xdd, 0xe2, 0xbd, 0x05, 0x80, 0x9d, 0x3e, 0xb4, 0x19, 0xd9, 0x3c,
  0xaf, 0x40, 0xf0, 0xbe, 0x13, 0xe3, 0x1e, 0x3e, 0xb2, 0xca, 0xa6, 0x3e,
  0xea, 0xd4, 0xeb, 0x3c, 0x46, 0x24, 0xac, 0xbe, 0x6d, 0x6a, 0x47, 0xbf,
  0x75, 0x6a, 0xab, 0x3c, 0xee, 0xcd, 0x63, 0xbd, 0x9b, 0xda, 0xb2, 0x3b,
  0xd5, 0xb0, 0x5f, 0x3c, 0x80, 0x2e, 0x94, 0xbe, 0x7a, 0x5a, 0x98, 0x3d,
  0xe7, 0xbf, 0x84, 0x3d, 0x87, 0x5d, 0x00, 0xbe, 0x20, 0x80, 0xcf, 0x3e,
  0x5a, 0xaa, 0x66, 0x3e, 0x6b, 0x78, 0x88, 0xbe, 0xd6, 0x8f, 0x3f, 0x3e,
  0xd2, 0x4d, 0x16, 0x3d, 0x2d, 0x1d, 0x25, 0x3c, 0xb7, 0x60, 0x6e, 0xbe,
  0x64, 0x2e, 0xca, 0xbe, 0xf3, 0xcb, 0x94, 0x3c, 0xa1, 0x9c, 0x5a, 0xbd,
  0xa5, 0xe2, 0x6b, 0x3c, 0x5e, 0xfd, 0x3f, 0xbb, 0x39, 0xee, 0x80, 0xbd,
  0xb3, 0xe3, 0x97, 0x3d, 0x24, 0x54, 0x84, 0xbd, 0x4b, 0x0c, 0x86, 0x3d,
  0x5f, 0x60, 0x74, 0x3e, 0x2a, 0x93, 0x49, 0x3d, 0xe1, 0xf5, 0xb7, 0xbe,
  0x31, 0x53, 0xc3, 0x3e, 0xaa, 0x1b, 0x32, 0x3e, 0xf4, 0xf5, 0x59, 0x3d,
  0x85, 0x84, 0xdd, 0xbe, 0x4f, 0x52, 0x0e, 0xbf, 0x9a, 0xd1, 0xa9, 0x3d,
  0xd2, 0xbf, 0x8a, 0xbd, 0xaa, 0x48, 0x9a, 0x3d, 0xea, 0x4b, 0x69, 0x3e,
  0xa0, 0xcb, 0x29, 0xbd, 0x32, 0x77, 0x40, 0xbe, 0xe4, 0x2a, 0x2d, 0xbd,
  0x1b, 0x4b, 0x1a, 0x3d, 0x50, 0x10, 0x4d, 0x3e, 0x76, 0xe6, 0xec, 0xbd,
  0xb8, 0x0b, 0x16, 0xbf, 0x98, 0x3e, 0x17, 0x3e, 0x9c, 0x4c, 0x1b, 0x3e,
  0xc4, 0x00, 0x0c, 0x3c, 0x3b, 0x9d, 0x0b, 0xbf, 0x23, 0xf0, 0x33, 0xbf,
  0x39, 0xc4, 0xf7, 0x3d, 0x14, 0x58, 0xe0, 0xbe, 0xda, 0x07, 0x8c, 0x3d,
  0x67, 0x1c, 0xb5, 0x3c, 0x01, 0x69, 0xbb, 0x3d, 0xc9, 0x2f, 0x27, 0xbb,
  0xcb, 0xe6, 0x52, 0xbe, 0xc0, 0xe0, 0x61, 0x3d, 0xff, 0x30, 0x6f, 0x3e,
  0x5e, 0x2c, 0x3f, 0x3d, 0x61, 0x9e, 0x13, 0xbf, 0x5e, 0x5c, 0xc8, 0x3c,
  0x95, 0x9e, 0x83, 0x3c, 0x9c, 0xaf, 0x84, 0x3d, 0x34, 0x57, 0xef, 0xbe,
  0x3c, 0x77, 0xdb, 0xbc, 0x7b, 0x70, 0x03, 0x3e, 0x48, 0x12, 0x2e, 0xbe,
  0x43, 0x86, 0x74, 0x3c, 0x98, 0xde, 0x24, 0xbe, 0xd4, 0x9e, 0xa3, 0xbe,
  0x0d, 0x7a, 0xab, 0xbe, 0x55, 0x73, 0x26, 0xbe, 0xe1, 0xa8, 0x3a, 0x3e,
  0x75, 0x17, 0xba, 0x3d, 0xda, 0xea, 0x27, 0x3d, 0x82, 0xe4, 0x0b, 0xbe,
  0x11, 0xc8, 0x19, 0xbe, 0x6a, 0x0e, 0xb1, 0xbe, 0xf1, 0xe5, 0x21, 0x3d,
  0xf3, 0x8a, 0x6b, 0xbe, 0x27, 0x89, 0x8f, 0xbe, 0xa5, 0x07, 0x29, 0xbe,
  0xfd, 0x4b, 0x52, 0xbe, 0xe4, 0x98, 0x87, 0x3c, 0x74, 0x68, 0x9c, 0x3e,
  0x68, 0xd7, 0xc9, 0xbd, 0x69, 0xd8, 0xb3, 0xbe, 0xc6, 0x09, 0x11, 0x3f,
  0xdd, 0x3f, 0xb5, 0x3e, 0x96, 0x41, 0x00, 0x3f, 0x5c, 0x24, 0x32, 0x3e,
  0x12, 0xd8, 0xa5, 0xbe, 0x90, 0x81, 0x7d, 0x3e, 0x2d, 0x8f, 0xa4, 0xbd,
  0xbe, 0xba, 0xbf, 0x3d, 0x71, 0xa5, 0x9f, 0xbd, 0xa7, 0x19, 0x4f, 0xbf,
  0x0f, 0xad, 0x86, 0x3c, 0xce, 0x2c, 0x82, 0xbe, 0xe6, 0x11, 0xda, 0x3c,
  0xf6, 0x83, 0xae, 0x3e, 0x14, 0x42, 0x7c, 0x3e, 0xe6, 0x5c, 0x28, 0xbe,
  0xd9, 0x61, 0xee, 0x3e, 0xa6, 0xae, 0x34, 0x3e, 0x48, 0xe8, 0x4a, 0x3e,
  0xb4, 0xf5, 0x6e, 0xbd, 0x7a, 0x9e, 0xd4, 0xbc, 0x94, 0x9a, 0x39, 0x3e,
  0x33, 0x20, 0xc1, 0xbc, 0x02, 0xa0, 0x53, 0x3d, 0x19, 0xaf, 0x29, 0xbe,
  0x47, 0x03, 0x25, 0xbf, 0xac, 0x21, 0xda, 0x3d, 0x89, 0x81, 0x23, 0xbe,
  0x44, 0x66, 0xf3, 0x3d, 0x1d, 0x7b, 0x83, 0x3e, 0xce, 0xc0, 0x6b, 0xbe,
  0x6c, 0xbd, 0xa8, 0xbe, 0xcf, 0xe0, 0xa6, 0x3e, 0x2d, 0xd1, 0x65, 0x3e,
  0x45, 0xe7, 0x6d, 0x3e, 0x10, 0x5b, 0x17, 0x3e, 0xe8, 0xf4, 0xe7, 0x3c,
  0x87, 0x54, 0x05, 0x3e, 0x38, 0x0f, 0x0c, 0xbe, 0x8e, 0x2f, 0x34, 0x3d,
  0x4f, 0x89, 0xd0, 0xbb, 0x60, 0xd3, 0x8d, 0x3d, 0x42, 0x2a, 0x17, 0x3e,
  0x9b, 0xcc, 0x39, 0xbe, 0xda, 0x04, 0xc2, 0x3d, 0xaf, 0x38, 0x4d, 0x3e,
  0x6f, 0x24, 0x2a, 0xbe, 0xc9, 0x33, 0xb7, 0xbe, 0xc1, 0xa2, 0xd5, 0x3e,
  0xd5, 0xb4, 0xe1, 0x3e, 0xfe, 0xfa, 0x9c, 0x3e, 0x96, 0x40, 0x56, 0xbd,
  0x4f, 0xd6, 0xb3, 0xbd, 0x42, 0xa1, 0xb7, 0xbe, 0x01, 0x5b, 0x00, 0xbe,
  0x0e, 0xfb, 0x92, 0xbc, 0xcd, 0x41, 0xa5, 0x3c, 0xef, 0xb2, 0xf1, 0xbe,
  0x6b, 0xb2, 0x2b, 0xbd, 0x2d, 0xae, 0x48, 0xbe, 0x0d, 0xe9, 0x47, 0x3d,
  0x3b, 0x22, 0x7b, 0x3e, 0xbf, 0xc5, 0x75, 0xbe, 0xd3, 0x39, 0xa2, 0xbe,
  0x29, 0x7d, 0x5b, 0x3e, 0xc2, 0x04, 0x48, 0x3e, 0xd7, 0x77, 0x6e, 0x3e,
  0x23, 0xfb, 0x6c, 0xbe, 0x59, 0xff, 0x46, 0xbe, 0xae, 0xb9, 0xbe, 0xbd,
  0x5b, 0x18, 0xf2, 0xbd, 0x16, 0x71, 0x25, 0xbc, 0x37, 0x8f, 0x90, 0xbe,
  0xaf, 0xd0, 0x71, 0xbf, 0x77, 0xd0, 0xc7, 0x3d, 0xcc, 0x78, 0x34, 0xbe,
  0xba, 0x54, 0x0d, 0x3d, 0xf3, 0x13, 0x7f, 0x3e, 0x3e, 0x8c, 0xca, 0xbd,
  0x68, 0xc8, 0x24, 0xbe, 0xb2, 0xe8, 0x74, 0x3c, 0x9c, 0x08, 0x97, 0xbc,
  0x16, 0x54, 0xcd, 0x3e, 0xff, 0xfe, 0x10, 0x3d, 0x40, 0xd3, 0x47, 0xbe,
  0xc4, 0xb5, 0xae, 0x3d, 0x92, 0xe8, 0xee, 0x3a, 0xc2, 0x5d, 0x1f, 0x3a,
  0x00, 0x5a, 0x64, 0xbe, 0x6f, 0xae, 0x7a, 0x3e, 0xb8, 0x38, 0x24, 0x3e,
  0x83, 0x39, 0xfd, 0xbd, 0xbb, 0x04, 0xe7, 0x3c, 0xa8, 0x31, 0x3a, 0x3d,
  0xd4, 0x2f, 0x7b, 0xbe, 0x75, 0x35, 0x31, 0x3d, 0xa1, 0x8a, 0xe8, 0x3d,
  0xde, 0xc6, 0x21, 0xbe, 0x3d, 0xd3, 0xe7, 0x3e, 0xd0, 0x86, 0x0d, 0x3d,
  0x94, 0x07, 0x1d, 0xbe, 0x06, 0xcb, 0x3b, 0x3e, 0x67, 0xd6, 0xfe, 0xbd,
  0x22, 0xd2, 0xc1, 0x3d, 0x85, 0xf3, 0x8f, 0xbc, 0xc6, 0xbd, 0xb8, 0x3d,
  0xf9, 0x12, 0xf0, 0xbb, 0x3c, 0x4f, 0x62, 0xbe, 0x20, 0xe4, 0xbb, 0xbe,
  0x59, 0x04, 0xcd, 0xbd, 0x3d, 0xf1, 0x2e, 0x3e, 0x6b, 0xa9, 0xaa, 0xbd,
  0x8a, 0x11, 0xa1, 0x3c, 0xd7, 0x94, 0x35, 0xbd, 0xe6, 0xfe, 0x06, 0x3f,
  0x11, 0xa9, 0x1b, 0x3e, 0x2d, 0xfd, 0x0d, 0xbe, 0x69, 0x9d, 0xec, 0x3d,
  0xf7, 0xaf, 0xeb, 0xbd, 0x2e, 0x68, 0x01, 0xbc, 0xc9, 0x21, 0x8c, 0xbe,
  0x76, 0xf4, 0xbb, 0xbc, 0xd6, 0xef, 0x19, 0x3e, 0xe3, 0x11, 0x24, 0xbe,
  0x17, 0x53, 0xb4, 0xbe, 0xb3, 0x83, 0xef, 0xbc, 0x88, 0x2d, 0x5b, 0x3d,
  0xd7, 0x04, 0xeb, 0x3d, 0x56, 0xad, 0x11, 0xbe, 0x8a, 0x89, 0x46, 0xbe,
  0xff, 0x27, 0xd2, 0x3e, 0xe6, 0x29, 0xd4, 0xbc, 0x27, 0x81, 0x3f, 0x3d,
  0x3c, 0xf1, 0x33, 0xbe, 0xaf, 0x5b, 0x1d, 0x3d, 0x57, 0x52, 0x8f, 0xbe,
  0x22, 0x25, 0xbf, 0x3c, 0x4f, 0xd4, 0xbf, 0xbd, 0x5b, 0xf2, 0x0c, 0x3e,
  0xe7, 0x3d, 0x57, 0xbd, 0x11, 0xf9, 0xfc, 0xbe, 0xa8, 0xde, 0xec, 0xbd,
  0x81, 0xef, 0x72, 0xbe, 0x01, 0x98, 0x35, 0xbe, 0x93, 0x7e, 0x40, 0xbd,
  0xf8, 0x4d, 0x68, 0xbe, 0x6e, 0xfd, 0x84, 0x3e, 0x6e, 0x55, 0x58, 0xbe,
  0x1d, 0x80, 0x43, 0x3b, 0x32, 0x8c, 0x4a, 0x3e, 0xff, 0xa8, 0x1f, 0x3e,
  0xcf, 0x84, 0xd2, 0xbc, 0x88, 0xfe, 0x23, 0x3d, 0x76, 0x11, 0x03, 0x3e,
  0xec, 0x99, 0x45, 0xbe, 0x60, 0x92, 0x71, 0x3c, 0xba, 0x3e, 0x5e, 0xbd,
  0xb2, 0x42, 0x6a, 0xbe, 0xaf, 0x05, 0x0c, 0x3e, 0x82, 0x6c, 0x69, 0xbe,
  0x40, 0xd9, 0xd0, 0x3c, 0x57, 0x93, 0xc5, 0xbd, 0x67, 0x97, 0xe4, 0x3e,
  0x03, 0x1d, 0xd3, 0xbd, 0x96, 0x39, 0x6a, 0xbd, 0xf2, 0x99, 0x0e, 0xbd,
  0xbb, 0x4f, 0x71, 0xbe, 0xbe, 0x15, 0x50, 0xbe, 0xec, 0x30, 0x56, 0x3d,
  0x69, 0xe3, 0x09, 0xbe, 0xfa, 0x98, 0x9e, 0xbd, 0xfa, 0xe6, 0x2a, 0xbd,
  0x23, 0xdd, 0x62, 0xbe, 0x33, 0xbc, 0xd7, 0x3c, 0xa6, 0x65, 0x93, 0xbc,
  0x70, 0xf0, 0xbb, 0xbd, 0x91, 0xa6, 0x1c, 0x3e, 0x51, 0xfe, 0x84, 0x3d,
  0x41, 0xa1, 0xb3, 0x3e, 0x61, 0xa3, 0x61, 0xbb, 0xfa, 0x54, 0xd4, 0xbc,
  0x76, 0x0f, 0x33, 0xbe, 0xd4, 0xe9, 0x9b, 0xbc, 0x5c, 0x56, 0xa5, 0xbe,
  0x36, 0xc7, 0xff, 0xbd, 0xf7, 0xea, 0xae, 0xbd, 0xa0, 0x75, 0x53, 0xbe,
  0x3a, 0xfc, 0xcb, 0xbd, 0xb5, 0x36, 0xc0, 0xbe, 0x9f, 0xb0, 0x47, 0xbe,
  0x27, 0x58, 0xdb, 0x3d, 0x14, 0x79, 0x08, 0xbe, 0x53, 0x67, 0xb1, 0xbd,
  0xde, 0xb2, 0x19, 0xbd, 0x54, 0xca, 0xe5, 0x3d, 0x2f, 0x4c, 0xad, 0xbd,
  0x0f, 0xcb, 0x80, 0xbe, 0xc5, 0x65, 0x40, 0x3d, 0xba, 0x3b, 0x09, 0x3d,
  0xd8, 0x18, 0x07, 0x3e, 0xc8, 0x01, 0x14, 0xbe, 0x83, 0x27, 0x9c, 0xbe,
  0xd9, 0x4d, 0x28, 0x3d, 0x66, 0xec, 0x40, 0xbe, 0xb3, 0xff, 0x29, 0xbe,
  0x3a, 0x95, 0x2a, 0x3d, 0x33, 0x70, 0xf7, 0xbe, 0xc0, 0x51, 0x34, 0xbe,
  0x0e, 0x82, 0x7c, 0xbe, 0xf0, 0x14, 0xce, 0x3d, 0xe8, 0x30, 0x88, 0x3e,
  0xd7, 0x97, 0x95, 0x3d, 0xbf, 0x27, 0xf0, 0xbd, 0x2c, 0xa7, 0xd9, 0xbe,
  0x81, 0x30, 0xc5, 0xbe, 0xf4, 0x1f, 0x5d, 0x3d, 0xc4, 0x2a, 0xc2, 0xbe,
  0x51, 0xa2, 0xcb, 0xbd, 0x23, 0xca, 0x4d, 0xbe, 0xe9, 0x70, 0x0e, 0xbe,
  0x78, 0x92, 0x2d, 0x39, 0x7a, 0x07, 0x85, 0x3e, 0x44, 0x99, 0x8c, 0xbd,
  0xa4, 0x5e, 0xdd, 0xbe, 0x2d, 0x01, 0x97, 0x3e, 0xc2, 0x88, 0x77, 0x3e,
  0x53, 0x30, 0x8b, 0x3e, 0xe6, 0x83, 0x90, 0x3d, 0xc3, 0x66, 0x8e, 0xbe,
  0x62, 0x40, 0xf7, 0x3e, 0x44, 0x0e, 0x0e, 0xbc, 0xc8, 0x0e, 0x12, 0x3d,
  0x2f, 0xd3, 0x0b, 0xbe, 0xb8, 0x59, 0x50, 0xbf, 0xaa, 0x15, 0x25, 0x3e,
  0x59, 0x41, 0x5d, 0xbe, 0x9e, 0x14, 0x5e, 0x3d, 0x6b, 0xc8, 0x2c, 0x3e,
  0x29, 0xba, 0xba, 0x3c, 0xf7, 0x54, 0x54, 0xbe, 0x8d, 0x46, 0x0a, 0x3f,
  0x8f, 0x87, 0x5e, 0x3e, 0x26, 0x45, 0xce, 0x3e, 0x52, 0xfc, 0x0d, 0x3e,
  0xbc, 0x5c, 0xc9, 0xbd, 0x19, 0xc8, 0xcc, 0x3d, 0x4a, 0x7e, 0xd7, 0x3d,
  0xcd, 0x4a, 0x72, 0x3d, 0x6e, 0xfe, 0x0c, 0xbe, 0xb3, 0xec, 0x1c, 0xbf,
  0xcc, 0x7c, 0x8c, 0xbd, 0x00, 0xf7, 0x33, 0xbe, 0x74, 0xb3, 0x6d, 0x3c,
  0x40, 0x0c, 0x41, 0x3e, 0x30, 0x4a, 0xd3, 0xbd, 0x91, 0x35, 0xec, 0xbe,
  0x36, 0xe2, 0xbd, 0x3e, 0xfb, 0x6b, 0x88, 0x3e, 0x13, 0xda, 0xae, 0x3e,
  0x51, 0xb5, 0x7c, 0x3c, 0xe7, 0xb1, 0x96, 0x3d, 0xba, 0x84, 0x48, 0x3d,
  0x22, 0x15, 0xc6, 0xbc, 0x97, 0xd6, 0x4f, 0xbc, 0x1a, 0x37, 0xcb, 0x3c,
  0xbe, 0x48, 0xa6, 0x3c, 0xe3, 0x41, 0x79, 0x3d, 0xbb, 0x06, 0x3d, 0xbe,
  0xf0, 0xf2, 0x8b, 0x3c, 0x30, 0xb9, 0x84, 0x3e, 0xfb, 0xd9, 0xd1, 0xbd,
  0x91, 0x66, 0x96, 0xbe, 0xd1, 0x7a, 0xee, 0x3e, 0xe3, 0x8a, 0xd4, 0x3e,
  0x5b, 0xbf, 0x73, 0x3e, 0x5e, 0xfa, 0xc9, 0xbd, 0x34, 0xd4, 0x13, 0x3d,
  0x10, 0x47, 0x38, 0xbe, 0xb9, 0xae, 0x4d, 0xbc, 0x66, 0xbd, 0xa0, 0x3d,
  0x00, 0xfb, 0x67, 0xbc, 0xe5, 0x25, 0xba, 0xbe, 0x67, 0x6d, 0xf7, 0xbd,
  0xd8, 0x06, 0x93, 0xbe, 0x70, 0x20, 0x47, 0x3d, 0xb1, 0x80, 0x9d, 0x3e,
  0x38, 0x64, 0x6a, 0xbe, 0x9a, 0xc0, 0xa3, 0xbe, 0x36, 0xbe, 0xbf, 0x3e,
  0x83, 0x6f, 0xad, 0x3e, 0xa0, 0x11, 0xde, 0x3e, 0xce, 0xed, 0x82, 0xbe,
  0x09, 0x6f, 0x00, 0xbe, 0xd4, 0x58, 0x6c, 0xbd, 0xa0, 0xf3, 0x84, 0xbd,
  0x5c, 0x74, 0x42, 0x3c, 0x09, 0x56, 0x83, 0xbe, 0x68, 0xd8, 0x83, 0xbf,
  0x14, 0x2b, 0x80, 0xbc, 0xc1, 0x89, 0xd9, 0xbe, 0xcb, 0xdd, 0xf6, 0x3c,
  0xb9, 0x77, 0x5d, 0x3e, 0x4d, 0xb4, 0xb2, 0xbd, 0x93, 0xfa, 0xa8, 0xbd,
  0xee, 0x47, 0x2c, 0xbd, 0x70, 0x32, 0x38, 0x3d, 0xab, 0x0a, 0x8f, 0x3e,
  0x4d, 0x96, 0x18, 0x3e, 0xb9, 0xa5, 0x93, 0xbe, 0xc6, 0xfb, 0x4b, 0x3d,
  0xd8, 0x3a, 0x3d, 0x3c, 0xee, 0x3d, 0xac, 0x3c, 0x42, 0x0f, 0x6e, 0xbe,
  0xca, 0x72, 0x5f, 0x3e, 0x2e, 0x6f, 0x1f, 0x3e, 0x79, 0x37, 0x1e, 0xbe,
  0xc2, 0x1c, 0x90, 0x3c, 0x3c, 0xe9, 0x99, 0x3d, 0xca, 0x7f, 0x4c, 0xbe,
  0x7f, 0x5e, 0xf3, 0xbd, 0xcb, 0x85, 0x57, 0x3c, 0x96, 0xd2, 0x47, 0xbe,
  0x1c, 0xb1, 0x50, 0xbe, 0xf6, 0x3d, 0xeb, 0x3d, 0x27, 0xf9, 0x87, 0xbe,
  0xfb, 0x3c, 0x7f, 0x3d, 0x15, 0x97, 0xed, 0xbd, 0x3f, 0xda, 0x45, 0xbe,
  0xd4, 0xc4, 0x52, 0xbe, 0x24, 0x16, 0x52, 0xbd, 0xc5, 0x1e, 0x1c, 0xbe,
  0x17, 0x33, 0x2b, 0xbd, 0x81, 0x2e, 0x17, 0xbe, 0x14, 0x60, 0xc2, 0x3d,
  0xd0, 0x8b, 0x63, 0x3d, 0x7a, 0x65, 0x4a, 0xbc, 0x73, 0xcd, 0xa4, 0xbc,
  0x4f, 0x2d, 0xd4, 0xbd, 0x51, 0x4f, 0x36, 0xbe, 0x85, 0xad, 0x75, 0x3d,
  0x8f, 0xdf, 0x0b, 0x3e, 0x32, 0xd7, 0x15, 0xbe, 0x9d, 0x73, 0x42, 0x3d,
  0x2e, 0xad, 0x71, 0xbd, 0x13, 0x79, 0x0d, 0xbc, 0x7b, 0x98, 0xbd, 0x3c,
  0xd8, 0x9d, 0x98, 0xbd, 0xec, 0x8a, 0xbb, 0x3d, 0x26, 0x61, 0x59, 0xbe,
  0x5f, 0xac, 0x99, 0x3b, 0x1f, 0xd1, 0xeb, 0x3a, 0x2f, 0x3a, 0x06, 0xbc,
  0x3a, 0x13, 0x9f, 0x3b, 0x65, 0x81, 0x0a, 0x3d, 0x30, 0x5b, 0x49, 0xbe,
  0xd8, 0xdf, 0x53, 0xbc, 0xb0, 0x53, 0x21, 0x3d, 0x49, 0x29, 0xa7, 0xbd,
  0xbd, 0x94, 0x0b, 0xbe, 0x52, 0x85, 0x47, 0xbe, 0x18, 0xb8, 0x01, 0x3e,
  0x4c, 0x6a, 0x4e, 0xbe, 0xf2, 0xfd, 0x5d, 0x3d, 0x80, 0xe6, 0x6f, 0xbd,
  0xa7, 0x23, 0xb5, 0xbd, 0xac, 0x93, 0x5c, 0xbe, 0x6b, 0xc9, 0xce, 0x3d,
  0x3e, 0x4d, 0x0c, 0x3d, 0x08, 0x79, 0xf6, 0xbd, 0x5f, 0x1e, 0xd4, 0x3c,
  0xc9, 0x32, 0xe9, 0x3d, 0xe7, 0x7e, 0x5d, 0xbe, 0xae, 0xe1, 0x5c, 0xbc,
  0x60, 0x9d, 0xea, 0xbd, 0x8e, 0xbc, 0x64, 0xbe, 0x0b, 0xef, 0xaa, 0xbe,
  0x0b, 0x70, 0xfb, 0xbd, 0x39, 0x3c, 0x0b, 0x3e, 0x3a, 0x02, 0x13, 0x3e,
  0x0b, 0x0f, 0x04, 0x3e, 0x38, 0x55, 0xb3, 0xbe, 0x07, 0xa1, 0xac, 0xbd,
  0x93, 0x58, 0x6e, 0xbd, 0x3a, 0x46, 0xd8, 0xbd, 0xe6, 0x72, 0xb6, 0xbd,
  0xb9, 0xfa, 0x57, 0xbe, 0x9a, 0x13, 0x03, 0xbc, 0x4b, 0x46, 0x76, 0xbe,
  0xd9, 0xfd, 0x01, 0xbe, 0x7f, 0x0b, 0x5a, 0xbe, 0x94, 0x56, 0xbe, 0xbc,
  0x11, 0x3c, 0xb8, 0xbd, 0x99, 0x5f, 0xf0, 0x3b, 0x3b, 0xa0, 0xf3, 0xbd,
  0x7e, 0x0c, 0xd4, 0xbd, 0x9f, 0xcc, 0x74, 0x3b, 0x0f, 0x53, 0x4a, 0x3c,
  0x70, 0x05, 0x02, 0x3d, 0x3a, 0x19, 0xf3, 0xbc, 0x8a, 0xb2, 0xd6, 0x3d,
  0x94, 0x5d, 0xc8, 0x3d, 0x90, 0xa6, 0x6f, 0xbd, 0xbd, 0x54, 0xa7, 0x3d,
  0xa1, 0x93, 0x32, 0x3c, 0x3a, 0x66, 0x22, 0xbe, 0x73, 0x0e, 0xba, 0xbd,
  0x86, 0xb8, 0xea, 0xbd, 0xc1, 0x3d, 0x82, 0xbe, 0xb9, 0xf2, 0x33, 0xbe,
  0xb8, 0x8e, 0x1a, 0xbe, 0x97, 0x23, 0x57, 0x3d, 0x64, 0x96, 0xf4, 0xbd,
  0x7d, 0xdb, 0xc7, 0xbd, 0xea, 0x75, 0xfd, 0x3d, 0xc6, 0x2f, 0xb2, 0x3c,
  0xa3, 0xe3, 0xd2, 0xbd, 0x59, 0x01, 0x68, 0xbd, 0x17, 0x96, 0x31, 0xbe,
  0x32, 0x38, 0x1d, 0x3d, 0x1a, 0x50, 0x91, 0xbc, 0x78, 0xfa, 0x34, 0xbe,
  0xda, 0xfd, 0x73, 0x3d, 0x57, 0x43, 0x43, 0xbd, 0x7e, 0xde, 0xa7, 0xbe,
  0xd2, 0x23, 0xa0, 0x3d, 0xcc, 0x43, 0x4b, 0xbd, 0x92, 0x4d, 0x95, 0xbc,
  0xee, 0xb0, 0x03, 0x3d, 0x74, 0x3c, 0xda, 0xbd, 0xf2, 0x63, 0x4d, 0xbe,
  0x05, 0xc6, 0xe5, 0xbd, 0x24, 0xff, 0x13, 0x3e, 0x89, 0x0a, 0xd6, 0xbe,
  0xd0, 0x79, 0xb4, 0xbe, 0xa3, 0xcf, 0x80, 0x3c, 0x1c, 0x15, 0x02, 0xbe,
  0x6b, 0xce, 0xe0, 0x3d, 0xdf, 0x7c, 0x61, 0xbd, 0x6e, 0x6c, 0x85, 0x3e,
  0xd1, 0xa4, 0x08, 0x3c, 0xe2, 0x36, 0xa4, 0x3d, 0xc6, 0xd6, 0xd1, 0x3e,
  0x3e, 0xf5, 0x1c, 0xbe, 0x33, 0xf0, 0x0f, 0x3d, 0x0a, 0x37, 0x33, 0x3d,
  0x3c, 0x89, 0x04, 0xbf, 0x94, 0x0c, 0xaa, 0x3e, 0x28, 0x1a, 0x4b, 0x3d,
  0xe9, 0x8a, 0x51, 0xbb, 0xcb, 0x98, 0xef, 0xbe, 0xf6, 0xd9, 0x09, 0xbd,
  0x1a, 0x76, 0x80, 0xbe, 0x40, 0xd8, 0x3c, 0x3e, 0xac, 0x03, 0x53, 0x3e,
  0xd0, 0x63, 0x58, 0xbe, 0xaf, 0x5e, 0xf1, 0xbd, 0x3c, 0x64, 0x0c, 0xbd,
  0xde, 0xec, 0xdb, 0x3f, 0x45, 0x47, 0x3f, 0xbe, 0x29, 0x16, 0x96, 0x3e,
  0x07, 0x54, 0x94, 0xbd, 0x34, 0x30, 0xcb, 0xbe, 0x49, 0xd2, 0xb4, 0x3e,
  0xe4, 0x2b, 0x16, 0x3d, 0x1c, 0x47, 0x9d, 0xbe, 0x57, 0xf9, 0xd4, 0xbd,
  0x20, 0x54, 0xc2, 0xbd, 0xba, 0xec, 0x84, 0x3d, 0xb5, 0xc7, 0x6f, 0x3e,
  0xd1, 0x56, 0xb6, 0x3d, 0x30, 0x9e, 0x55, 0xbe, 0xa3, 0x2e, 0x1b, 0xbe,
  0x68, 0x1a, 0xda, 0x3e, 0x70, 0x3a, 0x26, 0x40, 0xd3, 0x26, 0x91, 0x3e,
  0x46, 0x87, 0xd7, 0x3e, 0x8b, 0xc2, 0x85, 0xbd, 0x3c, 0x92, 0x08, 0xbe,
  0x2a, 0xc0, 0x13, 0x3c, 0x2d, 0xfb, 0xc5, 0x3e, 0x89, 0x03, 0x6b, 0xbe,
  0x9c, 0x7e, 0x09, 0xbe, 0x23, 0x39, 0xc4, 0x3c, 0xea, 0x2a, 0x88, 0xbd,
  0x15, 0xd8, 0xf7, 0x3b, 0x30, 0xb0, 0xc7, 0xbd, 0xaf, 0x94, 0xc7, 0x3d,
  0x6b, 0x00, 0x5d, 0x3b, 0x9f, 0x44, 0x2f, 0x3e, 0x92, 0x16, 0xb3, 0x3f,
  0x4c, 0x5c, 0x80, 0x3d, 0xf0, 0x84, 0xa3, 0x3e, 0x32, 0x90, 0x1f, 0xbd,
  0x66, 0x1a, 0x14, 0xbe, 0xdb, 0xab, 0x1d, 0xbd, 0x07, 0x1a, 0xcc, 0x3e,
  0x15, 0xf4, 0x27, 0xbf, 0x16, 0x00, 0x30, 0xbf, 0xd7, 0x64, 0x96, 0xbc,
  0x28, 0x26, 0x49, 0xbe, 0x81, 0xbf, 0x52, 0xbc, 0x30, 0x26, 0x66, 0xbe,
  0x84, 0x45, 0x1f, 0x3e, 0xa9, 0xca, 0xf8, 0x3c, 0x1c, 0x98, 0xd5, 0x3d,
  0x5d, 0xa8, 0xcc, 0x3f, 0xc5, 0xe3, 0xa3, 0x3d, 0xb4, 0x1d, 0x59, 0x3e,
  0x17, 0xc0, 0xf0, 0xbc, 0xf9, 0x27, 0xae, 0xbe, 0x2d, 0x2b, 0x96, 0xbe,
  0x75, 0x74, 0x8f, 0x3e, 0x6d, 0xa9, 0xf2, 0xbe, 0x25, 0x2b, 0xf8, 0xbe,
  0xd9, 0xb2, 0x66, 0x3d, 0xd5, 0x1c, 0xc3, 0xbd, 0xdf, 0xa1, 0x77, 0xbc,
  0xdc, 0xc9, 0xd9, 0xbe, 0x8a, 0x29, 0x39, 0x3e, 0x9f, 0x9c, 0x46, 0x3d,
  0x61, 0x74, 0x15, 0x3e, 0x00, 0xea, 0xf3, 0x3f, 0x53, 0xe5, 0xb9, 0xbd,
  0xd9, 0xa6, 0x3d, 0x3e, 0x90, 0xc5, 0x66, 0xbd, 0x0f, 0x46, 0xea, 0xbe,
  0x39, 0x8c, 0x27, 0xbe, 0x89, 0x3a, 0xa6, 0x3d, 0x2f, 0x1e, 0x1f, 0xbe,
  0x08, 0xda, 0x63, 0xbe, 0x44, 0x69, 0x76, 0x3d, 0x65, 0x14, 0x8a, 0xbe,
  0x70, 0x6e, 0xdd, 0x3d, 0x19, 0x1f, 0xe2, 0xbd, 0xff, 0xd1, 0x69, 0xbc,
  0x22, 0xed, 0xd1, 0xbc, 0x3d, 0xc6, 0x42, 0x3e, 0x04, 0x24, 0x0b, 0xbe,
  0xe4, 0xfa, 0xc4, 0xbd, 0x14, 0xa5, 0xe5, 0xbc, 0x89, 0x6d, 0x85, 0xbd,
  0xe3, 0xfb, 0x6a, 0xbe, 0x8b, 0x70, 0x01, 0x3e, 0x9a, 0x2c, 0x80, 0xbe,
  0x0e, 0x2b, 0x8c, 0x3c, 0x1e, 0x34, 0x18, 0xbc, 0x40, 0x0d, 0x91, 0xbe,
  0xba, 0xfe, 0x90, 0xbe, 0xe5, 0x56, 0x31, 0x3e, 0xe5, 0xb1, 0x3e, 0x3e,
  0x3f, 0x86, 0x93, 0xbd, 0xba, 0x12, 0xc1, 0xbe, 0xa4, 0x33, 0xd0, 0x3c,
  0xfe, 0xd1, 0xe4, 0xbd, 0xdc, 0x8e, 0x65, 0x3e, 0xba, 0xd7, 0x31, 0xbe,
  0x6f, 0x7a, 0x85, 0xbc, 0xfb, 0x20, 0x9b, 0xbe, 0xe0, 0xd2, 0x8d, 0xbe,
  0x0f, 0x27, 0x95, 0xbe, 0x83, 0x51, 0x2f, 0xbe, 0xcf, 0xe0, 0xc4, 0x3d,
  0xff, 0x42, 0x75, 0xbe, 0x08, 0xaa, 0x80, 0xbe, 0x13, 0x10, 0x90, 0xbe,
  0xb4, 0xff, 0xf6, 0xbd, 0xad, 0x23, 0xfa, 0xbe, 0x83, 0x46, 0xde, 0xbe,
  0xc4, 0x58, 0x26, 0xbe, 0x1a, 0x95, 0x8f, 0xbd, 0x2a, 0x9c, 0xa6, 0xbd,
  0x7d, 0xb0, 0xa4, 0xbe, 0x6d, 0xb8, 0x6c, 0xbc, 0xa2, 0xad, 0xee, 0xbd,
  0xd7, 0x49, 0xac, 0xbe, 0x43, 0x6f, 0xf0, 0xbc, 0x50, 0x29, 0x5a, 0xbd,
  0xdf, 0xca, 0x45, 0x3a, 0x30, 0xcc, 0xe1, 0xbe, 0x26, 0x8d, 0x08, 0x3d,
  0x50, 0xd4, 0xe4, 0xbd, 0xa7, 0xdc, 0xd4, 0xbe, 0x21, 0x0b, 0x4c, 0xbe,
  0x61, 0xc7, 0xcc, 0xbe, 0x91, 0x48, 0xca, 0xbe, 0xa1, 0xac, 0x89, 0xbd,
  0x7d, 0x08, 0x61, 0x3d, 0x6f, 0x60, 0xab, 0xbe, 0x92, 0xd8, 0xf8, 0xbc,
  0x55, 0x53, 0x64, 0x3e, 0x5b, 0x30, 0xe3, 0xbe, 0xfb, 0x57, 0x76, 0x3e,
  0x8c, 0x2e, 0x42, 0xbe, 0xf3, 0x9c, 0x53, 0xbe, 0x8f, 0x2a, 0x68, 0xbd,
  0xd0, 0x0d, 0x1d, 0x3e, 0xc0, 0x81, 0xdf, 0xbd, 0x92, 0x72, 0x7f, 0xbe,
  0x55, 0x0c, 0xd7, 0xbe, 0x39, 0x06, 0xfa, 0xbe, 0x75, 0x42, 0xdf, 0xbe,
  0x74, 0xbc, 0xaa, 0xbd, 0xae, 0x7d, 0xf5, 0x3d, 0xfc, 0x80, 0x90, 0xbe,
  0xc3, 0xa5, 0x38, 0xbd, 0x67, 0xec, 0x35, 0xbd, 0x74, 0x06, 0xc4, 0x3d,
  0x49, 0xd7, 0x85, 0xbe, 0x84, 0x83, 0x10, 0x3e, 0x13, 0xbd, 0x80, 0x3e,
  0x76, 0xfc, 0x66, 0xbe, 0xcf, 0x72, 0x28, 0x3e, 0xb7, 0x28, 0xe4, 0x3d,
  0x9f, 0x78, 0xbb, 0x3e, 0x38, 0x6f, 0x8f, 0xbe, 0xf5, 0x12, 0xb7, 0xbe,
  0xb8, 0xfa, 0x61, 0xbd, 0x1c, 0xd8, 0x08, 0xbe, 0x79, 0xc2, 0xb7, 0xbd,
  0xeb, 0x66, 0xb7, 0x3d, 0xa3, 0xbf, 0x34, 0x3c, 0x49, 0xa2, 0xce, 0x3c,
  0x18, 0xa2, 0x95, 0x3e, 0x2c, 0xde, 0x85, 0x3b, 0x19, 0x7f, 0xdb, 0xbc,
  0xc5, 0xb5, 0xde, 0x3d, 0x86, 0xba, 0x73, 0xbd, 0xdd, 0xee, 0x62, 0x3e,
  0x3e, 0xbc, 0x74, 0xbd, 0x01, 0xc6, 0xa1, 0x3e, 0xe7, 0x87, 0x1e, 0xbe,
  0x0e, 0x70, 0x41, 0xbe, 0xba, 0x90, 0xc4, 0xbd, 0xbe, 0x3d, 0x2d, 0x3d,
  0xb7, 0x56, 0x31, 0xbd, 0x1e, 0x8a, 0x91, 0xbc, 0xbf, 0xf7, 0x93, 0x3c,
  0x7a, 0x50, 0x1b, 0x3e, 0x53, 0xcd, 0xa8, 0x3e, 0xf2, 0x9b, 0x84, 0x3c,
  0x3e, 0x93, 0x5e, 0x3d, 0x82, 0x0f, 0x77, 0x3d, 0x1c, 0xe5, 0xbe, 0xbe,
  0x4a, 0x6f, 0xf5, 0x3d, 0x29, 0x42, 0xa6, 0x3c, 0xe1, 0xbd, 0xbe, 0x3e,
  0x67, 0x57, 0x84, 0xbd, 0xb5, 0xf2, 0x22, 0x3e, 0x23, 0xb7, 0x3b, 0x3d,
  0xa1, 0x11, 0x78, 0x3e, 0xd1, 0xa0, 0xbe, 0x3d, 0x16, 0xa2, 0x7e, 0x3d,
  0x30, 0x12, 0xe9, 0x3d, 0xff, 0xc9, 0x5d, 0xbc, 0xcf, 0xc0, 0x88, 0x3d,
  0xe2, 0x77, 0xa9, 0xbd, 0xf5, 0x5b, 0x1e, 0xbe, 0xa1, 0x2b, 0x70, 0xbc,
  0x97, 0xe7, 0x8f, 0xbd, 0xd2, 0x24, 0xcf, 0x3c, 0x5b, 0x57, 0x90, 0xbd,
  0x7b, 0x54, 0x92, 0xbe, 0x8e, 0x19, 0x1b, 0xbe, 0x68, 0x8b, 0x37, 0xbc,
  0x22, 0x17, 0x40, 0xbe, 0x92, 0x27, 0x50, 0xbe, 0xbc, 0xa2, 0x1a, 0x3e,
  0x91, 0xea, 0x61, 0xbd, 0xdc, 0xef, 0x7c, 0xbe, 0xf1, 0x2d, 0x2b, 0xbd,
  0x72, 0x42, 0xc8, 0x3d, 0xdf, 0x04, 0x05, 0xbc, 0x96, 0xaa, 0x15, 0xbe,
  0xb6, 0xa2, 0x95, 0xbd, 0x30, 0x5d, 0xdd, 0x39, 0xb8, 0xae, 0xdd, 0x3d,
  0x38, 0x90, 0x01, 0x3d, 0x87, 0x53, 0x26, 0x3c, 0xf4, 0xd7, 0x56, 0xbe,
  0xe3, 0x98, 0x7d, 0xbd, 0xe4, 0x4d, 0x9c, 0xbd, 0x26, 0x2c, 0x1f, 0xbe,
  0x94, 0xc8, 0x2b, 0xbd, 0x7c, 0xdb, 0x9b, 0x3d, 0xfd, 0x62, 0x0f, 0xbe,
  0x67, 0xa5, 0x65, 0xbd, 0x87, 0x69, 0xfc, 0x3d, 0x2a, 0xb6, 0x14, 0xbe,
  0x65, 0xa3, 0xe4, 0x3d, 0x90, 0x74, 0x08, 0x3e, 0xa4, 0x53, 0x56, 0xbe,
  0x13, 0x13, 0xc6, 0x3d, 0xb1, 0x78, 0x56, 0xbe, 0x29, 0x9c, 0x3a, 0x3e,
  0x60, 0x8a, 0x79, 0xbe, 0xc3, 0x75, 0x86, 0xbe, 0x89, 0x62, 0x38, 0xbd,
  0x43, 0x43, 0x45, 0x3d, 0xb5, 0xae, 0x82, 0xbd, 0xfc, 0xe9, 0xca, 0xbd,
  0x08, 0xb6, 0x0b, 0xbe, 0x1f, 0xcb, 0x06, 0x3e, 0xbe, 0x8f, 0xc5, 0xbd,
  0x2c, 0xf0, 0x95, 0xbd, 0xbd, 0x26, 0x6b, 0xbe, 0xe0, 0x06, 0x52, 0xbe,
  0x76, 0xea, 0xd3, 0x3c, 0x8d, 0x61, 0x60, 0xbe, 0x3c, 0xfe, 0xef, 0x3d,
  0xe1, 0xd0, 0x61, 0x3d, 0x63, 0xc4, 0x31, 0xbe, 0xfe, 0x47, 0x34, 0xbe,
  0x7e, 0x8f, 0xa0, 0xbd, 0x56, 0xcd, 0xac, 0x3c, 0x8e, 0xa9, 0xfe, 0xbc,
  0xd8, 0xb5, 0x1a, 0xbd, 0xba, 0x66, 0xd3, 0xbe, 0x65, 0xcd, 0x00, 0x3e,
  0x5e, 0xbd, 0x57, 0xbe, 0xfc, 0x15, 0x0c, 0x3d, 0x8e, 0x08, 0x50, 0xbe,
  0x58, 0x12, 0x81, 0xbd, 0xf7, 0x10, 0x5b, 0x3d, 0x68, 0x3d, 0x68, 0x3c,
  0x66, 0x82, 0x5f, 0xbc, 0x1a, 0x81, 0x16, 0xbd, 0xb2, 0xe8, 0x9c, 0xbd,
  0xc3, 0x83, 0x9f, 0xbd, 0xd6, 0xd7, 0x71, 0xbe, 0x20, 0xac, 0x3d, 0xbe,
  0x06, 0x7a, 0x14, 0x3e, 0x5f, 0x3e, 0x02, 0x3e, 0x9f, 0x06, 0xa9, 0xbe,
  0x82, 0x0a, 0x52, 0xbd, 0x2b, 0x06, 0x6a, 0xbd, 0xa6, 0xcb, 0x72, 0xbd,
  0x97, 0xa2, 0x5f, 0xbe, 0x17, 0xfc, 0xca, 0x3d, 0x9a, 0xe6, 0xdc, 0x3d,
  0x41, 0x98, 0x70, 0xbc, 0x4b, 0x76, 0x6c, 0x3d, 0xd6, 0x3c, 0xce, 0xbc,
  0x1a, 0xfc, 0x0d, 0x3e, 0xce, 0x6d, 0x9b, 0xbe, 0xc3, 0xdd, 0x2d, 0xbe,
  0xe0, 0xaf, 0x13, 0xbe, 0xa5, 0x3f, 0xe6, 0xbc, 0x48, 0x1a, 0x5c, 0xbe,
  0x98, 0x73, 0x0c, 0xbe, 0xd1, 0x10, 0xa9, 0x3d, 0x44, 0x70, 0xe8, 0xbd,
  0x3e, 0xf3, 0x04, 0xbe, 0xed, 0xcc, 0xfc, 0xbc, 0x8f, 0x79, 0x21, 0xbe,
  0xef, 0x9e, 0x78, 0x3d, 0xf1, 0xb9, 0xe8, 0xbc, 0x6a, 0x51, 0x94, 0xbd,
  0x13, 0x56, 0xe4, 0x3d, 0xb1, 0x8b, 0x13, 0xbe, 0x74, 0x8d, 0x0e, 0xbe,
  0x09, 0x1d, 0x94, 0xbc, 0x57, 0x2a, 0xa1, 0x3d, 0xc6, 0x97, 0x8f, 0x3d,
  0x35, 0x3b, 0x09, 0x3c, 0xf4, 0x16, 0x88, 0xbb, 0x97, 0x88, 0xcd, 0x3d,
  0xb1, 0x0e, 0x1f, 0xbe, 0xde, 0x57, 0x3f, 0xbe, 0x14, 0x70, 0xe0, 0x3d,
  0xc7, 0x2c, 0x1e, 0x3d, 0xdc, 0x00, 0xb8, 0x3c, 0xe5, 0xbd, 0x17, 0xbe,
  0x4f, 0x0c, 0x5b, 0xbd, 0x8c, 0xf5, 0x39, 0xbe, 0x48, 0x9a, 0x08, 0x3d,
  0xd1, 0x62, 0xc0, 0xbc, 0x01, 0xdb, 0x0c, 0xbe, 0x5d, 0x61, 0xf5, 0x3e,
  0x87, 0x63, 0x47, 0xbd, 0x83, 0x1c, 0x40, 0xbd, 0x6b, 0xa0, 0x1a, 0xbe,
  0x20, 0x08, 0x0f, 0xbe, 0x41, 0xc8, 0x2a, 0xbe, 0xaa, 0xfe, 0xb2, 0xbd,
  0x1c, 0x05, 0x11, 0x3d, 0x08, 0x32, 0xe4, 0x3d, 0xc3, 0x26, 0x04, 0x3e,
  0x4a, 0x1b, 0x14, 0x3d, 0x98, 0x49, 0x48, 0xbe, 0x2e, 0x6b, 0x8d, 0x3c,
  0xb3, 0x1b, 0x5b, 0x3c, 0xaa, 0xce, 0xca, 0x3c, 0xa4, 0x75, 0x27, 0xbe,
  0x83, 0x39, 0x85, 0x3f, 0x9c, 0x7f, 0x21, 0xbe, 0x68, 0x80, 0xa4, 0x3d,
  0x8e, 0xca, 0x48, 0xbd, 0xce, 0xc4, 0xd5, 0xbd, 0x08, 0xaa, 0x38, 0x3c,
  0xc9, 0xdb, 0x60, 0xbe, 0x70, 0x0d, 0x29, 0x3c, 0x69, 0x8a, 0xf9, 0xbd,
  0xb0, 0x99, 0xe4, 0xbb, 0x35, 0x12, 0x57, 0x3d, 0x3f, 0xba, 0xa3, 0x3d,
  0xa5, 0xa1, 0xda, 0xbd, 0x48, 0x54, 0x34, 0x3d, 0xd1, 0x2e, 0x94, 0x3d,
  0xfc, 0x61, 0x0a, 0xbd, 0xc2, 0x3b, 0xad, 0x3f, 0xd3, 0xa1, 0xfe, 0xbd,
  0xf9, 0x88, 0x16, 0x3b, 0xd1, 0x1a, 0x25, 0xbe, 0x30, 0x24, 0x57, 0xbd,
  0x55, 0x6c, 0xce, 0xbd, 0x30, 0xe2, 0x50, 0xbe, 0xa6, 0x38, 0xd7, 0xbd,
  0x18, 0x05, 0xb5, 0xbc, 0x23, 0x23, 0xa3, 0x3b, 0x3f, 0x67, 0x59, 0xbc,
  0xf9, 0x89, 0x2a, 0xbe, 0x77, 0xf7, 0x5d, 0x3d, 0x64, 0xe5, 0x81, 0xbd,
  0x4a, 0xf0, 0xb3, 0x3c, 0x8c, 0x9a, 0xc2, 0xbd, 0xa4, 0xe8, 0xa9, 0x3f,
  0x38, 0x74, 0xb4, 0xbb, 0xc6, 0x81, 0xb4, 0xbd, 0x44, 0x1c, 0x57, 0xbe,
  0x86, 0x38, 0xba, 0xbc, 0xac, 0xbb, 0xea, 0x3c, 0x00, 0x65, 0x51, 0xbe,
  0x8c, 0xf5, 0x90, 0x3d, 0x08, 0x5c, 0xde, 0x3d, 0xb5, 0xf2, 0x4c, 0x3e,
  0x83, 0x22, 0x37, 0x3d, 0x03, 0x5a, 0xb4, 0xbc, 0x56, 0x4d, 0x1d, 0xbe,
  0x2f, 0xe0, 0x09, 0xbe, 0x1e, 0xba, 0x65, 0xbe, 0x4c, 0x4a, 0xc2, 0xbd,
  0xf4, 0x49, 0x4a, 0x3f, 0x63, 0x99, 0x04, 0x3e, 0xe9, 0xbf, 0x66, 0xbe,
  0x3e, 0x95, 0x84, 0xbd, 0x47, 0x35, 0xdb, 0xbd, 0x12, 0x7c, 0x4f, 0xbe,
  0x86, 0x6f, 0x98, 0xbd, 0x50, 0xce, 0x1b, 0xbe, 0xd4, 0x1c, 0xfa, 0xbd,
  0x1b, 0x05, 0xea, 0x3d, 0xa1, 0xf5, 0x09, 0xbd, 0x88, 0x50, 0x97, 0x3c,
  0x5b, 0x87, 0x46, 0xbe, 0x82, 0xc7, 0x01, 0xbe, 0x6d, 0x45, 0x6c, 0xbe,
  0xdf, 0x0f, 0x18, 0x3d, 0xa3, 0xea, 0xdb, 0x3f, 0xbb, 0x7f, 0x3b, 0xbd,
  0x62, 0x0b, 0x45, 0x3c, 0x49, 0x57, 0x33, 0xbe, 0xb1, 0x2c, 0x06, 0x3e,
  0x54, 0x45, 0x2f, 0x3e, 0x8b, 0x12, 0x82, 0xbe, 0x16, 0x69, 0x55, 0x3c,
  0x0a, 0x2d, 0x1c, 0xbe, 0xb7, 0xb2, 0x20, 0xbe, 0x03, 0xa4, 0x37, 0xbe,
  0xc5, 0x91, 0x4a, 0xbd, 0xe0, 0xfb, 0xe3, 0xbd, 0xbf, 0x15, 0x1e, 0xbe,
  0xb6, 0x9d, 0x21, 0xbe, 0x7d, 0x93, 0x06, 0xbe, 0x73, 0x6b, 0x86, 0x3e,
  0x9c, 0x8e, 0x4e, 0xbe, 0xd6, 0x3d, 0xd2, 0xbd, 0xa7, 0xa7, 0x39, 0x3d,
  0x70, 0xe2, 0x76, 0xbd, 0x4a, 0xa9, 0x03, 0x3e, 0x39, 0xda, 0xde, 0xbd,
  0xf1, 0xa6, 0x0a, 0x3e, 0x13, 0xea, 0x8e, 0x3d, 0x22, 0x0f, 0x94, 0xbd,
  0x48, 0x16, 0x59, 0x3e, 0x67, 0x62, 0x3d, 0x3d, 0x81, 0xfa, 0x9f, 0x3e,
  0x75, 0x4e, 0x1f, 0xbe, 0x7e, 0x04, 0x64, 0xbe, 0x61, 0x04, 0x8e, 0x3d,
  0x8e, 0x22, 0x0d, 0x3d, 0x7a, 0x60, 0x85, 0x3e, 0x92, 0xf2, 0x2e, 0x3d,
  0x2f, 0xde, 0x5f, 0x3c, 0xab, 0x2e, 0x37, 0x3d, 0x3a, 0x4b, 0x45, 0xbe,
  0x6f, 0x01, 0xe5, 0x3c, 0xf3, 0x97, 0x44, 0xbe, 0xcf, 0x26, 0xfd, 0xbd,
  0x69, 0xd9, 0xad, 0xbb, 0xf4, 0xe3, 0xc6, 0x3e, 0xe5, 0x8b, 0xd2, 0xbd,
  0xf2, 0x77, 0x81, 0xbe, 0x4e, 0xd1, 0x63, 0x3e, 0xa7, 0x0c, 0x31, 0xbd,
  0x45, 0xa4, 0xa6, 0x3d, 0xec, 0x8d, 0xa1, 0x3e, 0x4c, 0x85, 0xd6, 0x3c,
  0x1c, 0x46, 0xf4, 0xbd, 0x6e, 0x91, 0x94, 0xbc, 0x09, 0x3e, 0xa3, 0xbd,
  0x09, 0xa5, 0x00, 0xbe, 0xce, 0x86, 0xba, 0x3d, 0xa3, 0xa4, 0xb9, 0xbe,
  0xbf, 0x21, 0x38, 0xbe, 0x14, 0x5e, 0x85, 0x3e, 0x47, 0x08, 0x62, 0xbe,
  0x45, 0xfb, 0x33, 0x3c, 0x6d, 0x71, 0xb3, 0xbc, 0x1f, 0x65, 0xbf, 0x3e,
  0x04, 0x22, 0x5b, 0x3d, 0xa6, 0x7c, 0xe4, 0xbe, 0xc4, 0x05, 0x9d, 0xbd,
  0x97, 0xfe, 0x2f, 0xbe, 0x38, 0x04, 0x18, 0xbf, 0x02, 0x97, 0x45, 0xbc,
  0xb9, 0xd4, 0xa5, 0xbe, 0x0b, 0x30, 0x57, 0xbe, 0x97, 0x61, 0x7e, 0xbe,
  0x7a, 0x08, 0x8f, 0xbe, 0x88, 0x30, 0x91, 0xbe, 0x6b, 0x03, 0x38, 0x3e,
  0xe7, 0xc8, 0x12, 0xbd, 0x4b, 0x6d, 0x68, 0xbe, 0xe0, 0x26, 0xbd, 0xb9,
  0xa5, 0x8d, 0x24, 0xbe, 0x9c, 0xf7, 0xa0, 0x3d, 0xf5, 0xec, 0x2d, 0xbf,
  0x43, 0x72, 0xa8, 0xbd, 0xc1, 0x71, 0x0a, 0xbe, 0x03, 0x4d, 0xc3, 0xbe,
  0xe3, 0x0a, 0x47, 0xbc, 0xc3, 0x61, 0xb1, 0xbe, 0x1d, 0x07, 0xbb, 0x3d,
  0x79, 0xdd, 0x82, 0xbc, 0xe6, 0x41, 0x32, 0xbd, 0x47, 0x3a, 0x14, 0x3e,
  0x3f, 0xfd, 0x1c, 0xbd, 0x58, 0x96, 0xe3, 0x3d, 0xe7, 0x19, 0x88, 0xbb,
  0x84, 0xdd, 0x50, 0x3e, 0x4b, 0xff, 0xb2, 0x3b, 0x8e, 0x57, 0x39, 0xbd,
  0x6f, 0x9a, 0xb0, 0xbd, 0x89, 0x74, 0xc4, 0xbc, 0x52, 0x18, 0xad, 0xbe,
  0x39, 0x25, 0x23, 0x3d, 0x62, 0x26, 0xff, 0x3b, 0xc0, 0x3c, 0x4d, 0xbc,
  0x26, 0x1b, 0xab, 0x3e, 0x5a, 0xfe, 0x8d, 0xbc, 0xbe, 0x22, 0x28, 0x3e,
  0x8e, 0x3f, 0x07, 0x3e, 0x14, 0x64, 0x03, 0xbe, 0x9c, 0x6f, 0x21, 0x3e,
  0xdb, 0xb8, 0x41, 0x3e, 0xdd, 0xd3, 0xb7, 0x3e, 0x6a, 0x08, 0x00, 0xbe,
  0x6e, 0xf7, 0xd7, 0xbc, 0x1c, 0x0c, 0x63, 0xbc, 0x37, 0xef, 0xdc, 0x3d,
  0x51, 0x2a, 0xc5, 0x3d, 0xdd, 0x2b, 0x1a, 0xbc, 0x3f, 0x37, 0xd0, 0xbc,
  0x00, 0x0d, 0x1f, 0x3e, 0xd5, 0xea, 0xc1, 0xbd, 0x1c, 0x33, 0x7b, 0x3d,
  0x3e, 0x45, 0x23, 0xbe, 0xf6, 0xad, 0x37, 0xbe, 0xa4, 0xf9, 0x7a, 0xbc,
  0xfa, 0xc7, 0xc3, 0x3d, 0xa8, 0x47, 0xf4, 0xbd, 0x12, 0xc6, 0x0f, 0xbe,
  0xaa, 0x06, 0x74, 0xbb, 0xbf, 0xae, 0xbf, 0x3c, 0x2c, 0x8d, 0x47, 0xbd,
  0x53, 0x92, 0x62, 0xbd, 0x45, 0x21, 0x92, 0xbc, 0xe6, 0x7a, 0x38, 0xbe,
  0x59, 0xc5, 0x12, 0xbd, 0xa5, 0x76, 0x00, 0xbd, 0x47, 0xef, 0x9f, 0x3e,
  0xda, 0x7a, 0xb6, 0xbd, 0x8d, 0x02, 0x64, 0x3e, 0xc1, 0x30, 0x77, 0x3e,
  0x60, 0x41, 0x90, 0xbe, 0xd1, 0xc8, 0x9b, 0x3e, 0xac, 0xc0, 0x9b, 0xbc,
  0xb6, 0x4f, 0x6f, 0x3e, 0xd0, 0xb4, 0x65, 0xbe, 0xdf, 0x4c, 0xa8, 0xbe,
  0xaa, 0xb2, 0xce, 0xbc, 0x27, 0xd3, 0x86, 0x3e, 0xeb, 0x6f, 0x89, 0x3e,
  0xe9, 0xe3, 0xd9, 0xb9, 0x29, 0xfe, 0x88, 0xbc, 0x03, 0x35, 0x56, 0x3e,
  0x8a, 0x90, 0xae, 0xbb, 0xcb, 0x4d, 0x83, 0x3c, 0xc0, 0x27, 0xeb, 0xbd,
  0x39, 0xba, 0x8d, 0xbd, 0x12, 0x16, 0x88, 0xbd, 0xac, 0x8a, 0xa4, 0x3e,
  0xd9, 0x5f, 0x0b, 0xbd, 0xf8, 0x05, 0xb8, 0xbd, 0xf5, 0x1a, 0xb8, 0x3c,
  0x77, 0x27, 0x2b, 0xbe, 0xdf, 0x13, 0x8d, 0xbb, 0xd4, 0xb6, 0xe5, 0xbd,
  0x06, 0x65, 0x09, 0x3d, 0xc6, 0x59, 0x95, 0xbe, 0x4c, 0xfd, 0x73, 0xbd,
  0x89, 0xb5, 0xbb, 0xbd, 0xd1, 0xea, 0x66, 0xbc, 0xda, 0x5f, 0x4a, 0xbe,
  0xfb, 0x74, 0xb7, 0xbe, 0x37, 0x32, 0xc8, 0xbe, 0x05, 0x82, 0x86, 0x3d,
  0xeb, 0x73, 0xc4, 0x3c, 0xea, 0x81, 0x2e, 0xbe, 0x7b, 0xe5, 0x2c, 0xbc,
  0x73, 0x97, 0xdd, 0x3c, 0x73, 0x5b, 0x36, 0x3e, 0xe0, 0x77, 0x2b, 0xbe,
  0x5d, 0x95, 0x30, 0xbe, 0xfe, 0xc1, 0xdc, 0xbd, 0x91, 0x83, 0x08, 0xbf,
  0x18, 0x8c, 0x52, 0xbd, 0x8f, 0xf7, 0x6e, 0xbe, 0x1c, 0x01, 0x4e, 0xbe,
  0xfa, 0xe4, 0xf1, 0x3c, 0x96, 0xfd, 0x86, 0xbc, 0x73, 0xaf, 0xa8, 0xbe,
  0xea, 0x54, 0x4a, 0xbd, 0xaf, 0xe0, 0x98, 0x3e, 0x91, 0xf4, 0xbb, 0xbe,
  0x8b, 0xdc, 0xdd, 0x3d, 0x52, 0x91, 0xd5, 0xbd, 0x73, 0x1b, 0x9e, 0x3a,
  0x2b, 0x9f, 0xdb, 0xbe, 0xd3, 0x10, 0xf4, 0xbc, 0x5b, 0xf2, 0xb8, 0xbb,
  0xd2, 0x2d, 0xe1, 0xbd, 0x15, 0x8b, 0xca, 0xbd, 0x62, 0xa3, 0xe2, 0xbe,
  0x63, 0x71, 0xb2, 0x3e, 0x8d, 0xfb, 0x4a, 0xbd, 0x5b, 0xd3, 0x80, 0x3d,
  0x6f, 0x15, 0x7f, 0x3d, 0xa3, 0x62, 0x3f, 0xbe, 0xd6, 0xb6, 0x91, 0x3e,
  0xdd, 0x1e, 0x93, 0x3d, 0x89, 0xc6, 0xbf, 0x3e, 0x7b, 0xf3, 0xff, 0xbd,
  0x70, 0x2b, 0xfe, 0xbd, 0xdf, 0x58, 0x03, 0x3d, 0x12, 0xcd, 0x72, 0x3e,
  0x51, 0x2e, 0x37, 0x3e, 0xef, 0x1b, 0x8b, 0x3d, 0xe4, 0x0a, 0xeb, 0xbc,
  0x24, 0x74, 0x9b, 0xbd, 0xf9, 0x9d, 0x65, 0x3e, 0xa9, 0x99, 0x8c, 0x3c,
  0x3d, 0x82, 0x6e, 0x3e, 0x98, 0xb0, 0xa6, 0x3d, 0x34, 0xa0, 0x11, 0x3d,
  0x8c, 0x45, 0xc4, 0x3d, 0x3f, 0x1f, 0x14, 0x3e, 0xf8, 0xc2, 0x3f, 0x3e,
  0xeb, 0xdf, 0x96, 0xbe, 0xd9, 0x9e, 0xb6, 0x3d, 0xb1, 0x99, 0xe7, 0x3c,
  0x9b, 0x72, 0x2b, 0xbe, 0xa9, 0x9a, 0xa4, 0x3e, 0x9b, 0xcc, 0x1e, 0x3b,
  0xfc, 0xe8, 0xb6, 0xbd, 0x12, 0x38, 0x6f, 0x3d, 0xe9, 0xd0, 0xcb, 0xbd,
  0x93, 0x32, 0x7e, 0x3d, 0x55, 0x47, 0x7b, 0xbe, 0x55, 0xb1, 0x81, 0xbe,
  0xa0, 0x41, 0x9c, 0xbc, 0xf9, 0x7c, 0xee, 0x3d, 0xe3, 0x99, 0x64, 0xbd,
  0x40, 0xc8, 0xaf, 0xbd, 0xa4, 0xd3, 0x7f, 0x3d, 0x86, 0xae, 0xa9, 0x3d,
  0xc7, 0x35, 0xb1, 0x3b, 0x5c, 0xce, 0x6d, 0xbe, 0xfe, 0x53, 0x64, 0xbe,
  0x66, 0xd7, 0xab, 0xbd, 0xfd, 0x65, 0x68, 0xbd, 0xd4, 0x38, 0xd6, 0xbd,
  0xed, 0x9a, 0xfa, 0xbd, 0x10, 0xc0, 0xde, 0xbc, 0x4e, 0x1c, 0xc3, 0x3d,
  0x06, 0x34, 0x8c, 0x3d, 0x11, 0x78, 0x19, 0x3e, 0xb1, 0xba, 0x23, 0xbe,
  0x49, 0x56, 0xbe, 0x3d, 0x52, 0x6a, 0xfa, 0xbc, 0x33, 0xfb, 0xf7, 0xbd,
  0x95, 0xae, 0x9e, 0xbe, 0xb0, 0x12, 0xba, 0x3d, 0x89, 0xff, 0x2b, 0x3e,
  0x20, 0x5a, 0x4a, 0xbe, 0x0e, 0x87, 0xc8, 0xbd, 0xff, 0x45, 0x96, 0xbe,
  0x4e, 0x53, 0x8f, 0x3d, 0x2d, 0xb0, 0xfa, 0xbd, 0xa5, 0xab, 0x77, 0xbe,
  0x80, 0x52, 0xfc, 0x3d, 0x3a, 0xdc, 0xa1, 0x3e, 0x6e, 0x34, 0x6d, 0x3e,
  0x3f, 0x66, 0x2b, 0x3e, 0xa5, 0xf2, 0x80, 0xba, 0x60, 0xce, 0x23, 0x3d,
  0xfb, 0xd4, 0x95, 0xbc, 0x7e, 0x16, 0x2a, 0xbe, 0x5f, 0x55, 0x9e, 0x3d,
  0x9d, 0x54, 0x6d, 0xbd, 0xe0, 0xe9, 0xc9, 0x3d, 0xab, 0x4f, 0xb5, 0xbd,
  0xd5, 0xe9, 0xc4, 0xbe, 0x11, 0xe8, 0xdf, 0x3d, 0x90, 0x18, 0x8d, 0xbd,
  0x6b, 0x72, 0xbe, 0x3d, 0x28, 0xff, 0x8b, 0x3e, 0x0e, 0xfd, 0x83, 0x3e,
  0xa0, 0x5d, 0x4c, 0x3e, 0x7d, 0x91, 0x2a, 0x3e, 0x21, 0x54, 0x31, 0x3d,
  0xb5, 0x6a, 0x07, 0x3e, 0x44, 0xa8, 0x8d, 0xbc, 0x77, 0xec, 0xc9, 0xbe,
  0x17, 0xd0, 0xe5, 0x3d, 0x75, 0x21, 0x29, 0xbe, 0x2a, 0x3f, 0x00, 0x3c,
  0x2c, 0x51, 0x2a, 0x3c, 0x80, 0x56, 0x68, 0xbe, 0x42, 0x87, 0x00, 0x3e,
  0xff, 0xe0, 0x5b, 0xbd, 0x09, 0x35, 0xcd, 0x3b, 0x5e, 0x2c, 0x7b, 0x3e,
  0x52, 0x5e, 0x87, 0x3e, 0x02, 0xc5, 0xc6, 0xbd, 0xc5, 0xe2, 0x03, 0xbe,
  0x61, 0x2a, 0x17, 0x3e, 0xbd, 0x1e, 0x13, 0xbe, 0x68, 0x04, 0xae, 0xbc,
  0x33, 0x34, 0x8a, 0xbe, 0xe2, 0x9b, 0xd2, 0x3c, 0xb4, 0x41, 0x1c, 0xbe,
  0x08, 0xc9, 0x4e, 0x3e, 0xb9, 0x68, 0x46, 0x3c, 0xf0, 0x5b, 0x8d, 0x3d,
  0xd0, 0xd1, 0x77, 0x3d, 0x6f, 0xc4, 0x9a, 0xbe, 0xaa, 0x45, 0x74, 0xba,
  0x64, 0x38, 0xdb, 0x3d, 0x89, 0xb3, 0x94, 0x3d, 0x35, 0xee, 0x86, 0x3c,
  0x8e, 0x9c, 0x02, 0xbe, 0x7d, 0x0c, 0xe5, 0xbd, 0x73, 0xad, 0xc7, 0xbc,
  0x49, 0x19, 0xa3, 0xbc, 0x54, 0x1c, 0xa4, 0xbe, 0xd5, 0x4e, 0x51, 0x3d,
  0x28, 0x91, 0xe2, 0xbd, 0x02, 0x6d, 0x89, 0xbc, 0x5e, 0x69, 0x24, 0x3d,
  0x9b, 0x39, 0x04, 0xbe, 0xb4, 0xc8, 0x40, 0x3e, 0xab, 0x3b, 0xa9, 0xbd,
  0xf6, 0x5c, 0x8a, 0xbe, 0xc0, 0xd2, 0x9b, 0x3e, 0x2c, 0x11, 0xef, 0x3d,
  0x39, 0xb8, 0xb3, 0xbd, 0xf5, 0x3f, 0xe5, 0xbb, 0x3e, 0x56, 0x90, 0x3d,
  0x68, 0x1d, 0xbe, 0xbd, 0xfd, 0x7d, 0xcc, 0xbd, 0xd3, 0x94, 0xf3, 0xbd,
  0x29, 0x6f, 0xee, 0xbd, 0x8d, 0x54, 0xfb, 0x3d, 0x84, 0x3e, 0x9b, 0x3d,
  0x82, 0x8f, 0xa9, 0xbd, 0x1e, 0x09, 0xe6, 0xbe, 0x55, 0x5e, 0x86, 0x3e,
  0x2e, 0x80, 0x2e, 0x3e, 0x05, 0xfe, 0xa0, 0xbe, 0x52, 0xe3, 0x84, 0x3c,
  0x35, 0x7c, 0x5e, 0x3d, 0xcf, 0xa8, 0x9f, 0xbe, 0xdd, 0xa5, 0xcb, 0x3d,
  0xa7, 0xff, 0x66, 0xbd, 0x87, 0x49, 0x0b, 0x3d, 0xa4, 0x2d, 0x60, 0xbe,
  0x3e, 0x4b, 0x3c, 0xbe, 0xae, 0x65, 0xdb, 0x3d, 0xa1, 0x73, 0x87, 0x3e,
  0xea, 0x6c, 0x38, 0xbe, 0x59, 0xf9, 0x45, 0xbe, 0xff, 0xa7, 0x79, 0xbe,
  0xe2, 0x2e, 0x35, 0x3d, 0x15, 0x60, 0x51, 0xbe, 0x9c, 0x72, 0xc3, 0xbe,
  0x89, 0x18, 0x92, 0xbe, 0x3b, 0x59, 0x82, 0x3d, 0xb5, 0xb7, 0x66, 0xbe,
  0xd0, 0x87, 0x36, 0xbe, 0xe1, 0x8c, 0xc4, 0x3d, 0x70, 0x69, 0xe4, 0xbc,
  0x9b, 0x02, 0x82, 0xbe, 0x10, 0x01, 0x5a, 0xbe, 0x15, 0xd6, 0xa2, 0xbe,
  0xb4, 0x73, 0x98, 0x3f, 0xb0, 0x41, 0x3b, 0xbe, 0xef, 0xb4, 0xde, 0xbd,
  0x28, 0x20, 0xe6, 0xbd, 0x6f, 0xb0, 0x8d, 0xbe, 0xe0, 0xd4, 0x12, 0xbe,
  0x72, 0xd3, 0x8d, 0x3d, 0x8b, 0x5c, 0x9f, 0xbd, 0x73, 0xc0, 0xe5, 0x3b,
  0x44, 0x7a, 0xa9, 0xbe, 0x14, 0xd8, 0x36, 0x3d, 0x11, 0x85, 0xac, 0xbe,
  0x9c, 0x4e, 0xa5, 0xbd, 0x30, 0xb6, 0x51, 0xbd, 0x37, 0x51, 0x07, 0xbe,
  0xf5, 0xcd, 0x2f, 0xbe, 0x2a, 0x6e, 0x67, 0x3f, 0xf9, 0x67, 0xa0, 0xbd,
  0x77, 0xe2, 0xef, 0xbd, 0x70, 0x7d, 0x00, 0xbe, 0x54, 0x2c, 0x74, 0x3e,
  0xde, 0xbf, 0x4a, 0xbe, 0xb1, 0x5e, 0x25, 0xbe, 0x71, 0x54, 0x2c, 0x3d,
  0x81, 0x3e, 0xba, 0x3d, 0xc9, 0x30, 0x1c, 0xbe, 0x08, 0xa0, 0x65, 0xbe,
  0xbb, 0x61, 0x72, 0xbe, 0x14, 0x0f, 0x9b, 0xbe, 0x35, 0x77, 0xc1, 0xbe,
  0x56, 0x52, 0x98, 0xbe, 0x9d, 0x1c, 0x89, 0x3c, 0xcb, 0xa4, 0x99, 0x3f,
  0x3f, 0x5f, 0x5b, 0xbe, 0x1f, 0xce, 0x8a, 0xbe, 0x78, 0x42, 0x07, 0xbd,
  0x86, 0x25, 0x28, 0x3d, 0x18, 0x99, 0x05, 0xbc, 0xd7, 0xfc, 0x57, 0xbd,
  0xc2, 0x39, 0xd2, 0xbd, 0x2b, 0x6c, 0x19, 0xbd, 0x35, 0x78, 0x27, 0xbe,
  0x53, 0xeb, 0xe9, 0xbb, 0x17, 0x6b, 0xc2, 0xbd, 0x98, 0x8d, 0x0a, 0xbe,
  0xa5, 0x9e, 0x0d, 0xbe, 0x3b, 0xc0, 0xc7, 0xbe, 0xd2, 0x31, 0x82, 0xbe,
  0xf9, 0x47, 0x4a, 0x3f, 0x0e, 0x18, 0x4f, 0x3d, 0x24, 0x8d, 0xcf, 0xbe,
  0xee, 0xb3, 0x98, 0xbd, 0x7e, 0x4b, 0xb8, 0x3a, 0x07, 0x67, 0xee, 0xbd,
  0x80, 0x3d, 0x12, 0xbe, 0x3e, 0x11, 0x5f, 0xbe, 0x43, 0x40, 0x22, 0xbe,
  0x9f, 0x34, 0x66, 0xbe, 0x99, 0xdd, 0x9f, 0x3c, 0xfa, 0x82, 0xf6, 0xbd,
  0xfc, 0xd2, 0xe1, 0x3d, 0x2a, 0xa3, 0x12, 0xbe, 0x56, 0x94, 0xa0, 0xbe,
  0x0b, 0x1a, 0x22, 0xbe, 0x4e, 0x7d, 0xa2, 0x3f, 0xfd, 0x98, 0xb7, 0x3d,
  0x3f, 0x74, 0xa7, 0xbe, 0x68, 0x27, 0x00, 0xbe, 0xb0, 0x41, 0x1d, 0xbe,
  0x45, 0x1f, 0xc9, 0xbd, 0x0d, 0xa8, 0x52, 0xbd, 0x21, 0xa9, 0x63, 0x3e,
  0xd0, 0x97, 0xe6, 0xbb, 0xef, 0xec, 0x83, 0xbc, 0x5b, 0xd0, 0x35, 0x3e,
  0x38, 0xd8, 0x26, 0xbe, 0x73, 0xc9, 0x8a, 0x3d, 0xd5, 0x28, 0x8c, 0xbd,
  0x37, 0xf7, 0x94, 0xbd, 0x3a, 0x15, 0xd7, 0xbd, 0xf5, 0x31, 0x68, 0x3f,
  0xdc, 0x4a, 0xab, 0x3d, 0x78, 0xbd, 0x0e, 0x3d, 0x17, 0x85, 0xf7, 0xbd,
  0xdf, 0xfe, 0x46, 0xbd, 0xb5, 0x8d, 0x9f, 0x3e, 0x5c, 0xbd, 0x56, 0xbe,
  0x4d, 0x33, 0x7e, 0x3e, 0x02, 0x39, 0x56, 0x3e, 0x35, 0x09, 0x24, 0xbe,
  0xa9, 0x54, 0xa7, 0xbd, 0xea, 0xe0, 0x18, 0x3e, 0x21, 0x35, 0x41, 0x3e,
  0x62, 0xfa, 0x16, 0xbe, 0x11, 0x1e, 0x4c, 0x3e, 0x67, 0x34, 0x0c, 0xbd,
  0xc7, 0xe2, 0x22, 0x3e, 0x23, 0xed, 0x77, 0x3d, 0x42, 0x4d, 0x73, 0x3e,
  0xe1, 0xa7, 0x28, 0x3d, 0xf5, 0xec, 0x3a, 0x3e, 0x85, 0x40, 0xc3, 0x3d,
  0x75, 0x2b, 0x07, 0xbe, 0x2a, 0x6e, 0x43, 0x3e, 0x53, 0xda, 0x8f, 0x3d,
  0x78, 0x0a, 0x8e, 0xbe, 0xb8, 0xe3, 0x00, 0x3e, 0x41, 0x75, 0xb8, 0xbc,
  0x63, 0xb9, 0x16, 0x3e, 0x15, 0x5a, 0x67, 0xbe, 0x4f, 0x3c, 0x34, 0xbe,
  0x32, 0x65, 0x94, 0x3c, 0x18, 0x36, 0x9d, 0xbd, 0xe6, 0x55, 0xac, 0x3e,
  0x34, 0x1b, 0x20, 0x3d, 0xbb, 0x98, 0x1a, 0x3c, 0x7b, 0xf0, 0x06, 0x3e,
  0x93, 0x70, 0x25, 0x3e, 0xd4, 0x61, 0x88, 0x3d, 0xee, 0xa5, 0x07, 0x3d,
  0x94, 0xf9, 0x13, 0xbe, 0xb0, 0x04, 0x0c, 0xbe, 0x22, 0x5f, 0xa0, 0x3e,
  0xc1, 0x2d, 0xb4, 0xbd, 0x7b, 0x09, 0x76, 0xbe, 0xf5, 0xa8, 0x88, 0x3e,
  0x1c, 0x26, 0x1b, 0xbd, 0x18, 0x1d, 0x19, 0x3e, 0xf9, 0x17, 0xe3, 0x3d,
  0x2e, 0x8f, 0x40, 0x3c, 0xe2, 0x95, 0xcd, 0x3a, 0x95, 0x00, 0x1d, 0xbd,
  0x25, 0x21, 0x85, 0x3d, 0x63, 0xa3, 0x86, 0xbc, 0x5b, 0xe1, 0x65, 0x3e,
  0x9a, 0xd6, 0xa4, 0xbd, 0xe1, 0x6d, 0x42, 0xbe, 0xcd, 0xcf, 0xc3, 0xbe,
  0x22, 0x4e, 0xbf, 0xbe, 0xf5, 0xde, 0xcf, 0xbc, 0x7c, 0x96, 0x9a, 0xbe,
  0x41, 0xa0, 0x35, 0x3e, 0x33, 0x83, 0x72, 0x3a, 0xe7, 0x0a, 0xb4, 0xbe,
  0xfd, 0x7e, 0x42, 0xbb, 0x16, 0x42, 0x5d, 0xbe, 0xd5, 0x8f, 0x2f, 0xbf,
  0x07, 0x53, 0x86, 0xbc, 0x45, 0x32, 0xb5, 0xbe, 0x2b, 0x6a, 0x77, 0xbb,
  0xa4, 0x1d, 0x8f, 0xbe, 0x21, 0xc7, 0x6a, 0xbd, 0x7c, 0xcc, 0x06, 0xbd,
  0x47, 0xb7, 0x01, 0xbf, 0x08, 0xae, 0x9d, 0xbe, 0x66, 0xd9, 0x7f, 0xbe,
  0x0e, 0x3b, 0xa1, 0xbe, 0xd7, 0xb3, 0xa9, 0xbe, 0xc0, 0xf6, 0x18, 0x3c,
  0x20, 0xcc, 0x49, 0xbf, 0xeb, 0xd2, 0x44, 0x3d, 0xff, 0x26, 0x7b, 0xbe,
  0xa1, 0xc4, 0xfa, 0xbe, 0x41, 0xab, 0x92, 0xbd, 0x97, 0x56, 0x1f, 0xbe,
  0x30, 0x85, 0x10, 0xbc, 0x4d, 0xcc, 0x4f, 0xbe, 0xfa, 0xd2, 0x93, 0xbc,
  0x34, 0x2f, 0x8e, 0xbe, 0x7f, 0xd5, 0x9f, 0xbe, 0x8f, 0x69, 0x23, 0xbd,
  0x47, 0x83, 0xcc, 0xbe, 0xd8, 0xb6, 0x19, 0xbd, 0x10, 0x6a, 0x1c, 0xbe,
  0x19, 0x65, 0x9a, 0x3c, 0xe5, 0x2a, 0xbd, 0xbe, 0x6e, 0xb4, 0x55, 0xbe,
  0x2b, 0x1c, 0xac, 0xbe, 0x96, 0xed, 0xc0, 0xbc, 0x4e, 0x85, 0x6b, 0xbd,
  0x93, 0x85, 0x97, 0xbe, 0xd1, 0xaf, 0x82, 0x3e, 0x2b, 0xbb, 0x4d, 0xbe,
  0x61, 0x1a, 0x5a, 0x3e, 0x3a, 0xf2, 0xc2, 0x3e, 0xf1, 0x92, 0x97, 0xbd,
  0x20, 0x3d, 0x39, 0x3e, 0x22, 0x2f, 0xff, 0x3a, 0x4b, 0xc6, 0x81, 0x3e,
  0x45, 0xff, 0xb5, 0xbe, 0x02, 0x8d, 0xc9, 0xbd, 0x77, 0x8c, 0xf1, 0xbd,
  0x88, 0x79, 0xac, 0xbc, 0xcc, 0xee, 0x0d, 0xbb, 0xf1, 0xe9, 0x43, 0xbd,
  0xa6, 0xe6, 0x1d, 0xbd, 0x8e, 0xb6, 0xed, 0x3d, 0xcc, 0x7a, 0xa1, 0x3d,
  0x22, 0x32, 0x33, 0xbe, 0xe1, 0xa7, 0xf9, 0x3d, 0x43, 0xc1, 0xb7, 0x3d,
  0xcf, 0x3d, 0x5c, 0xbe, 0x2f, 0x36, 0xb4, 0x3d, 0x45, 0xd2, 0x2e, 0x3e,
  0xbf, 0xfe, 0x25, 0x3e, 0x64, 0x27, 0x9f, 0xbd, 0xe0, 0x3e, 0xa9, 0x3d,
  0x62, 0x93, 0xc9, 0x3a, 0xfb, 0x2a, 0xa0, 0x3d, 0xc6, 0x18, 0xf2, 0xbd,
  0xec, 0xb1, 0xf4, 0x3d, 0x3c, 0x70, 0x1f, 0xbc, 0x53, 0x38, 0xc5, 0x3d,
  0x9a, 0xfe, 0x54, 0x3c, 0xc5, 0x7d, 0x40, 0xbe, 0x82, 0x20, 0x3f, 0xbe,
  0x7f, 0x4a, 0x98, 0xbb, 0x78, 0xe6, 0xcf, 0x3d, 0x1e, 0x2e, 0x4f, 0xbe,
  0xb5, 0x6f, 0x8a, 0xbe, 0xb2, 0xfd, 0xdf, 0xbd, 0xc4, 0xb2, 0x42, 0xbe,
  0x88, 0x87, 0x1a, 0xbe, 0xb2, 0x08, 0x8a, 0xbe, 0x8f, 0x79, 0xcc, 0x3f,
  0x8d, 0x8b, 0xcf, 0xbd, 0xd8, 0xf9, 0x70, 0xbd, 0x56, 0x9a, 0x41, 0xbe,
  0x33, 0x37, 0x30, 0xbe, 0xca, 0xbd, 0xb1, 0x3d, 0x57, 0xf0, 0x4c, 0xbd,
  0xbc, 0xeb, 0x66, 0xbc, 0x9b, 0xd9, 0xd9, 0xbd, 0xea, 0x10, 0x5f, 0xbd,
  0x9d, 0x24, 0x1a, 0xbe, 0xd6, 0x73, 0x43, 0xbe, 0x51, 0x29, 0x37, 0xbe,
  0xf6, 0x81, 0xb8, 0x3d, 0x78, 0xe6, 0xa0, 0x3d, 0xa2, 0xd9, 0x85, 0x3b,
  0xd9, 0xc2, 0xe1, 0x3f, 0x8b, 0x4f, 0x47, 0x3d, 0x38, 0xde, 0xd6, 0x3d,
  0xa5, 0x16, 0x48, 0x3d, 0x39, 0xc3, 0x3f, 0xbe, 0xb0, 0x68, 0x50, 0xbe,
  0x29, 0x44, 0x86, 0xbe, 0x58, 0x5b, 0x0b, 0xbe, 0x52, 0x09, 0x57, 0xbe,
  0xdd, 0x64, 0x7a, 0x3e, 0x24, 0x1d, 0xc8, 0xbc, 0x74, 0xbf, 0xbd, 0xbc,
  0x7f, 0xc1, 0x1a, 0x3d, 0xd5, 0x94, 0x84, 0xbe, 0x69, 0x52, 0xb0, 0xbd,
  0xd9, 0x4c, 0x88, 0x3a, 0x37, 0x7d, 0x48, 0x40, 0xf9, 0x3a, 0x3a, 0xbe,
  0x1e, 0x74, 0x24, 0xbe, 0x1e, 0xad, 0xc7, 0xbe, 0xb2, 0xcd, 0x49, 0xbe,
  0xf5, 0x2f, 0xe0, 0x3d, 0x2f, 0xf6, 0x06, 0xbd, 0xd3, 0xef, 0x02, 0xbe,
  0x6d, 0xb7, 0xf0, 0x3d, 0x3e, 0xc2, 0xd8, 0xbc, 0xbe, 0x59, 0x33, 0x3d,
  0x3a, 0x2f, 0x29, 0xbd, 0xb0, 0x26, 0xf3, 0xbd, 0x83, 0x85, 0x30, 0xbc,
  0x5b, 0xa4, 0x92, 0xbe, 0x12, 0x47, 0x04, 0x3d, 0x13, 0x21, 0x1f, 0x40,
  0x5b, 0x62, 0x39, 0x3d, 0xbe, 0xac, 0x5d, 0xbe, 0xad, 0xcd, 0x18, 0xbe,
  0xbe, 0x40, 0x7f, 0xbe, 0x1e, 0x0f, 0x0a, 0xbe, 0x3c, 0xe7, 0x5e, 0xbe,
  0xe7, 0x70, 0x24, 0xbe, 0x80, 0x12, 0xd7, 0x3d, 0xe0, 0xa4, 0x68, 0x3e,
  0xa7, 0x1d, 0x57, 0xbd, 0xeb, 0xa0, 0x01, 0xbe, 0xb4, 0x36, 0x9e, 0xbd,
  0x38, 0x80, 0x80, 0xbc, 0xa4, 0xc1, 0x4b, 0xbe, 0x14, 0x07, 0x93, 0x3c,
  0x79, 0xb9, 0xc5, 0x3f, 0xce, 0x6c, 0x53, 0xbe, 0x09, 0x21, 0x53, 0xbd,
  0x16, 0x72, 0xda, 0xbd, 0xb8, 0x50, 0xf0, 0x3d, 0x78, 0x72, 0x1d, 0xbd,
  0x1d, 0x52, 0x23, 0xbe, 0x22, 0xce, 0xeb, 0xbc, 0x7c, 0x51, 0x32, 0xbd,
  0x97, 0xf0, 0xba, 0xba, 0x1f, 0x1f, 0x8f, 0xbd, 0xc5, 0xcf, 0x6f, 0xbd,
  0x68, 0x62, 0x8f, 0x3d, 0x71, 0xa5, 0x8b, 0xbd, 0x42, 0x2b, 0x3c, 0xbe,
  0x92, 0x46, 0x27, 0xbe, 0xd9, 0x21, 0xe4, 0x3f, 0xc6, 0xed, 0x02, 0x3e,
  0xc3, 0x66, 0xeb, 0xbd, 0xee, 0xe4, 0xa6, 0xbd, 0x67, 0xfb, 0xec, 0x3d,
  0xfe, 0x5a, 0x41, 0xbe, 0xa6, 0xcc, 0x2a, 0xbc, 0x47, 0xf3, 0x77, 0xbe,
  0xf7, 0xf1, 0x8d, 0x3c, 0x7c, 0xe1, 0x2e, 0xbd, 0x60, 0x04, 0x50, 0x3d,
  0x7e, 0x2c, 0x4d, 0xbe, 0x1b, 0x4d, 0x8d, 0xbc, 0x65, 0x2b, 0xb5, 0xbe,
  0x50, 0xdc, 0xa3, 0xbe, 0xc4, 0xac, 0xe2, 0x3b, 0x14, 0x72, 0xad, 0x3d,
  0x88, 0x25, 0x33, 0xbd, 0x94, 0x00, 0x30, 0xbd, 0x79, 0x24, 0x51, 0xbe,
  0x43, 0xfd, 0xfe, 0xbd, 0x91, 0x7d, 0xd2, 0xbe, 0x88, 0xba, 0x90, 0x3e,
  0xef, 0x65, 0x8d, 0xbe, 0x8f, 0xb9, 0x94, 0xbe, 0x69, 0x43, 0x02, 0xbd,
  0x70, 0x12, 0x14, 0xbd, 0x75, 0x3c, 0xe2, 0xbc, 0x65, 0x1f, 0x4e, 0xbe,
  0x44, 0x22, 0x8b, 0x3e, 0x07, 0x5c, 0x50, 0x3d, 0xae, 0xc0, 0xf6, 0x3d,
  0x04, 0x3d, 0x06, 0xbe, 0x7e, 0x93, 0x9a, 0xbe, 0x0f, 0xa7, 0xe9, 0xbd,
  0xf2, 0x5f, 0x69, 0x3a, 0x2f, 0x49, 0x90, 0xbe, 0xe8, 0xed, 0x64, 0x3e,
  0x62, 0x36, 0x34, 0x3e, 0x1d, 0x08, 0xbf, 0xbd, 0xd9, 0x24, 0x4c, 0xbe,
  0x59, 0x8b, 0x69, 0xbe, 0x27, 0x76, 0x53, 0xbe, 0x30, 0x82, 0x37, 0x3e,
  0x43, 0x00, 0x58, 0x3e, 0x8e, 0xd7, 0x60, 0xbe, 0x88, 0xdd, 0x7f, 0xbb,
  0x81, 0x4d, 0x2b, 0x3e, 0x7d, 0xfc, 0xb3, 0x3d, 0x60, 0xd5, 0x1d, 0xbe,
  0xa2, 0xb1, 0x19, 0x3e, 0xcf, 0x6f, 0xc5, 0xbd, 0x5a, 0x7e, 0x9e, 0xbe,
  0x3e, 0x33, 0xf6, 0x3d, 0x9b, 0xc5, 0x6e, 0x3e, 0x2e, 0xec, 0xad, 0xbe,
  0x62, 0xc1, 0x5d, 0xbe, 0x32, 0xe0, 0x98, 0xbe, 0xd9, 0x8e, 0x11, 0x3e,
  0x7f, 0x5e, 0x44, 0x3e, 0x31, 0x92, 0xed, 0x3d, 0x81, 0xcd, 0x5f, 0xbc,
  0xfd, 0xcd, 0xc3, 0xbd, 0xc7, 0xf0, 0x70, 0x3e, 0xd2, 0x7e, 0xef, 0xbd,
  0x46, 0x7a, 0x49, 0x3e, 0x0e, 0x00, 0xd2, 0x3e, 0xd2, 0xb5, 0x11, 0xbe,
  0x41, 0x13, 0xe8, 0x3d, 0x89, 0x27, 0x61, 0x3d, 0x66, 0xc2, 0x03, 0x3e,
  0x27, 0xd7, 0xd8, 0xbe, 0xad, 0x52, 0x90, 0xbe, 0xf7, 0x80, 0x5b, 0xbe,
  0xee, 0xdf, 0xbb, 0xbd, 0x4a, 0x75, 0xc0, 0xbd, 0xfe, 0x55, 0x4c, 0xbd,
  0x83, 0x28, 0x74, 0x3e, 0xd3, 0x75, 0xf1, 0x3c, 0x24, 0xdc, 0xa4, 0x3e,
  0x53, 0xa1, 0xe3, 0xbd, 0x37, 0x35, 0xd8, 0xbd, 0x59, 0x28, 0x7d, 0x3e,
  0xaf, 0x40, 0x90, 0xbc, 0x90, 0x81, 0x8f, 0xbe, 0x99, 0x5e, 0x8c, 0x3d,
  0xaf, 0x29, 0xcf, 0x3e, 0xe2, 0xc7, 0xb1, 0xbe, 0xfa, 0x82, 0x31, 0xbf,
  0xac, 0x75, 0xf5, 0x3d, 0x5e, 0xb5, 0xba, 0xbd, 0x9c, 0xdd, 0xc8, 0xbb,
  0x9e, 0x10, 0x83, 0xbe, 0x61, 0x69, 0x3a, 0x3e, 0xf7, 0xc3, 0x96, 0x3b,
  0xbf, 0x8c, 0x05, 0x3d, 0x0a, 0x13, 0x8c, 0xbe, 0x7f, 0x9b, 0xf0, 0xbd,
  0xa9, 0x40, 0x64, 0x3e, 0xc7, 0x9d, 0x56, 0x3d, 0x12, 0x27, 0xe3, 0xbe,
  0x3b, 0x04, 0x2b, 0xbe, 0x41, 0xe3, 0x8a, 0x3e, 0xc2, 0x10, 0xa2, 0xbe,
  0xb6, 0xfa, 0xc0, 0xbe, 0x2a, 0xc5, 0x4e, 0xbe, 0xf6, 0xdd, 0x08, 0xbe,
  0x36, 0xb7, 0x7f, 0x3d, 0x9b, 0xb2, 0xf2, 0xbd, 0xf1, 0xed, 0x28, 0x3e,
  0xb3, 0x88, 0x3c, 0xbd, 0x18, 0x4f, 0x41, 0xbd, 0xa4, 0x35, 0xa7, 0x3d,
  0xff, 0xe9, 0x1d, 0xbe, 0x6f, 0xa1, 0x62, 0x3e, 0x4e, 0x53, 0x0e, 0xbe,
  0x3f, 0x4b, 0x09, 0xbf, 0xec, 0x35, 0x0f, 0x3d, 0x45, 0x7d, 0xb2, 0xbc,
  0x32, 0x6e, 0x8d, 0xbe, 0x50, 0xd9, 0x80, 0xbe, 0xa7, 0xbf, 0xc9, 0x3c,
  0x1f, 0x04, 0x03, 0xbe, 0x96, 0xef, 0x8e, 0x3d, 0xe6, 0x4b, 0xfd, 0xbd,
  0x58, 0xf0, 0x3e, 0x3d, 0xdc, 0x15, 0xbd, 0xbd, 0x0b, 0x70, 0x66, 0xbc,
  0xce, 0x1f, 0x3d, 0xbe, 0x7e, 0x90, 0xa2, 0xbd, 0x36, 0x82, 0x6b, 0x3e,
  0x23, 0x13, 0x77, 0xbd, 0xd2, 0x2e, 0x8d, 0xbe, 0x4a, 0xfe, 0xff, 0xff,
  0x10, 0x00, 0x00, 0x00, 0x05, 0x00, 0x00, 0x00, 0x14, 0x00, 0x00, 0x00,
  0x2c, 0x00, 0x00, 0x00, 0x02, 0x00, 0x00, 0x00, 0x10, 0x00, 0x00, 0x00,
  0x70, 0x00, 0x00, 0x00, 0x17, 0x00, 0x00, 0x00, 0x73, 0x65, 0x71, 0x75,
  0x65, 0x6e, 0x74, 0x69, 0x61, 0x6c, 0x2f, 0x64, 0x65, 0x6e, 0x73, 0x65,
  0x2f, 0x4d, 0x61, 0x74, 0x4d, 0x75, 0x6c, 0x00, 0x38, 0xfe, 0xff, 0xff,
  0x2e, 0xff, 0xff, 0xff, 0x04, 0x00, 0x00, 0x00, 0x08, 0x00, 0x00, 0x00,
  0xff, 0xff, 0xff, 0xff, 0x70, 0x00, 0x00, 0x00, 0x00, 0x00, 0x0e, 0x00,
  0x18, 0x00, 0x08, 0x00, 0x07, 0x00, 0x0c, 0x00, 0x10, 0x00, 0x14, 0x00,
  0x0e, 0x00, 0x00, 0x00, 0x00, 0x00, 0x00, 0x02, 0x10, 0x00, 0x00, 0x00,
  0x04, 0x00, 0x00, 0x00, 0x10, 0x00, 0x00, 0x00, 0x2c, 0x00, 0x00, 0x00,
  0x01, 0x00, 0x00, 0x00, 0x02, 0x00, 0x00, 0x00, 0x18, 0x00, 0x00, 0x00,
  0x73, 0x65, 0x71, 0x75, 0x65, 0x6e, 0x74, 0x69, 0x61, 0x6c, 0x2f, 0x66,
  0x6c, 0x61, 0x74, 0x74, 0x65, 0x6e, 0x2f, 0x43, 0x6f, 0x6e, 0x73, 0x74,
  0x00, 0x00, 0x00, 0x00, 0xa0, 0xfe, 0xff, 0xff, 0x96, 0xff, 0xff, 0xff,
  0x04, 0x00, 0x00, 0x00, 0x0c, 0x00, 0x00, 0x00, 0x93, 0x75, 0x27, 0x3f,
  0x3a, 0x8d, 0x22, 0xc0, 0xe3, 0xec, 0x60, 0x3e, 0x0a, 0xff, 0xff, 0xff,
  0x10, 0x00, 0x00, 0x00, 0x03, 0x00, 0x00, 0x00, 0x10, 0x00, 0x00, 0x00,
  0x3c, 0x00, 0x00, 0x00, 0x01, 0x00, 0x00, 0x00, 0x03, 0x00, 0x00, 0x00,
  0x29, 0x00, 0x00, 0x00, 0x73, 0x65, 0x71, 0x75, 0x65, 0x6e, 0x74, 0x69,
  0x61, 0x6c, 0x2f, 0x64, 0x65, 0x6e, 0x73, 0x65, 0x5f, 0x31, 0x2f, 0x42,
  0x69, 0x61, 0x73, 0x41, 0x64, 0x64, 0x2f, 0x52, 0x65, 0x61, 0x64, 0x56,
  0x61, 0x72, 0x69, 0x61, 0x62, 0x6c, 0x65, 0x4f, 0x70, 0x00, 0x00, 0x00,
  0x60, 0xff, 0xff, 0xff, 0x00, 0x00, 0x06, 0x00, 0x08, 0x00, 0x04, 0x00,
  0x06, 0x00, 0x00, 0x00, 0x04, 0x00, 0x00, 0x00, 0x40, 0x00, 0x00, 0x00,
  0x41, 0x83, 0x7d, 0x40, 0x6b, 0x08, 0x50, 0x40, 0x3a, 0xd3, 0x61, 0xbe,
  0x6a, 0x41, 0x75, 0x40, 0x86, 0xce, 0xe1, 0xbd, 0x25, 0xd7, 0x93, 0xbf,
  0xfa, 0x53, 0x96, 0x3e, 0x58, 0xf4, 0x26, 0xbe, 0xfd, 0x14, 0x3c, 0x3e,
  0x68, 0xcd, 0xc1, 0xbf, 0x27, 0x97, 0x50, 0xbf, 0x73, 0x3d, 0x31, 0xbe,
  0xe2, 0x92, 0xb0, 0xbe, 0x60, 0x95, 0x8f, 0xbf, 0xf4, 0xef, 0x30, 0x3f,
  0x43, 0x7d, 0x50, 0xbf, 0xae, 0xff, 0xff, 0xff, 0x10, 0x00, 0x00, 0x00,
  0x02, 0x00, 0x00, 0x00, 0x10, 0x00, 0x00, 0x00, 0x3c, 0x00, 0x00, 0x00,
  0x01, 0x00, 0x00, 0x00, 0x10, 0x00, 0x00, 0x00, 0x27, 0x00, 0x00, 0x00,
  0x73, 0x65, 0x71, 0x75, 0x65, 0x6e, 0x74, 0x69, 0x61, 0x6c, 0x2f, 0x64,
  0x65, 0x6e, 0x73, 0x65, 0x2f, 0x42, 0x69, 0x61, 0x73, 0x41, 0x64, 0x64,
  0x2f, 0x52, 0x65, 0x61, 0x64, 0x56, 0x61, 0x72, 0x69, 0x61, 0x62, 0x6c,
  0x65, 0x4f, 0x70, 0x00, 0x04, 0x00, 0x06, 0x00, 0x04, 0x00, 0x00, 0x00,
  0x00, 0x00, 0x0e, 0x00, 0x14, 0x00, 0x04, 0x00, 0x00, 0x00, 0x08, 0x00,
  0x0c, 0x00, 0x10, 0x00, 0x0e, 0x00, 0x00, 0x00, 0x10, 0x00, 0x00, 0x00,
  0x01, 0x00, 0x00, 0x00, 0x1c, 0x00, 0x00, 0x00, 0x2c, 0x00, 0x00, 0x00,
  0x04, 0x00, 0x00, 0x00, 0x01, 0x00, 0x00, 0x00, 0x40, 0x00, 0x00, 0x00,
  0x03, 0x00, 0x00, 0x00, 0x01, 0x00, 0x00, 0x00, 0x0c, 0x00, 0x00, 0x00,
  0x63, 0x6f, 0x6e, 0x76, 0x32, 0x64, 0x5f, 0x69, 0x6e, 0x70, 0x75, 0x74,
  0x00, 0x00, 0x00, 0x00, 0xfc, 0xff, 0xff, 0xff, 0x04, 0x00, 0x04, 0x00,
  0x04, 0x00, 0x00, 0x00
};

unsigned int model_tflite_len = 12316;// Fill the int in `src/model.cc` here