#include "magic_wand_model_data.h"

// We need to keep the data array aligned on some architectures.
#ifdef __has_attribute
#define HAVE_ATTRIBUTE(x) __has_attribute(x)
#else
#define HAVE_ATTRIBUTE(x) 0
#endif
#if HAVE_ATTRIBUTE(aligned) || (defined(__GNUC__) && !defined(__clang__))
#define DATA_ALIGN_ATTRIBUTE __attribute__((aligned(4)))
#else
#define DATA_ALIGN_ATTRIBUTE
#endif

const unsigned char g_magic_wand_model_data[] DATA_ALIGN_ATTRIBUTE =  {
  0x08, 0x00, 0x00, 0x00, 0x54, 0x46, 0x4c, 0x33, 0x62, 0xff, 0xff, 0xff,
  0x03, 0x00, 0x00, 0x00, 0x10, 0x00, 0x00, 0x00, 0x24, 0x00, 0x00, 0x00,
  0x78, 0x00, 0x00, 0x00, 0x24, 0x00, 0x00, 0x00, 0x05, 0x00, 0x00, 0x00,
  0x78, 0x05, 0x00, 0x00, 0xb0, 0x04, 0x00, 0x00, 0xe0, 0x02, 0x00, 0x00,
  0x60, 0x02, 0x00, 0x00, 0x54, 0x01, 0x00, 0x00, 0x01, 0x00, 0x00, 0x00,
  0x78, 0x00, 0x00, 0x00, 0x13, 0x00, 0x00, 0x00, 0xd4, 0x2f, 0x00, 0x00,
  0xd0, 0x2f, 0x00, 0x00, 0xdc, 0x2e, 0x00, 0x00, 0x68, 0x2e, 0x00, 0x00,
  0xfc, 0x2d, 0x00, 0x00, 0xac, 0x11, 0x00, 0x00, 0x98, 0x10, 0x00, 0x00,
  0xbc, 0x0e, 0x00, 0x00, 0x60, 0x06, 0x00, 0x00, 0xfc, 0x05, 0x00, 0x00,
  0x78, 0x05, 0x00, 0x00, 0xa8, 0x2f, 0x00, 0x00, 0xa4, 0x2f, 0x00, 0x00,
  0xa0, 0x2f, 0x00, 0x00, 0x9c, 0x2f, 0x00, 0x00, 0x98, 0x2f, 0x00, 0x00,
  0x94, 0x2f, 0x00, 0x00, 0x90, 0x2f, 0x00, 0x00, 0x8c, 0x2f, 0x00, 0x00,
  0x0f, 0x00, 0x00, 0x00, 0x4d, 0x4c, 0x49, 0x52, 0x20, 0x43, 0x6f, 0x6e,
  0x76, 0x65, 0x72, 0x74, 0x65, 0x64, 0x2e, 0x00, 0x00, 0x00, 0x0e, 0x00,
  0x18, 0x00, 0x04, 0x00, 0x08, 0x00, 0x0c, 0x00, 0x10, 0x00, 0x14, 0x00,
  0x0e, 0x00, 0x00, 0x00, 0x14, 0x00, 0x00, 0x00, 0x5c, 0x00, 0x00, 0x00,
  0x60, 0x00, 0x00, 0x00, 0x64, 0x00, 0x00, 0x00, 0x84, 0x00, 0x00, 0x00,
  0x12, 0x00, 0x00, 0x00, 0x04, 0x2f, 0x00, 0x00, 0xa0, 0x2e, 0x00, 0x00,
  0xf8, 0x2d, 0x00, 0x00, 0x98, 0x2d, 0x00, 0x00, 0x30, 0x2d, 0x00, 0x00,
  0xdc, 0x10, 0x00, 0x00, 0xc0, 0x0f, 0x00, 0x00, 0xe4, 0x0d, 0x00, 0x00,
  0xa0, 0x05, 0x00, 0x00, 0x3c, 0x05, 0x00, 0x00, 0xb0, 0x04, 0x00, 0x00,
  0xe8, 0x03, 0x00, 0x00, 0x38, 0x03, 0x00, 0x00, 0xa4, 0x02, 0x00, 0x00,
  0x10, 0x02, 0x00, 0x00, 0x90, 0x01, 0x00, 0x00, 0xfc, 0x00, 0x00, 0x00,
  0x80, 0x00, 0x00, 0x00, 0x01, 0x00, 0x00, 0x00, 0x00, 0x00, 0x00, 0x00,
  0x01, 0x00, 0x00, 0x00, 0x11, 0x00, 0x00, 0x00, 0x08, 0x00, 0x00, 0x00,
  0x1c, 0x04, 0x00, 0x00, 0x58, 0x03, 0x00, 0x00, 0xc8, 0x02, 0x00, 0x00,
  0x24, 0x02, 0x00, 0x00, 0xac, 0x01, 0x00, 0x00, 0x10, 0x01, 0x00, 0x00,
  0x94, 0x00, 0x00, 0x00, 0x10, 0x00, 0x00, 0x00, 0x04, 0x00, 0x00, 0x00,
  0x6d, 0x61, 0x69, 0x6e, 0x00, 0x00, 0x00, 0x00, 0x8e, 0xff, 0xff, 0xff,
  0x00, 0x00, 0x00, 0x09, 0x04, 0x00, 0x00, 0x00, 0x1c, 0x00, 0x00, 0x00,
  0x10, 0x00, 0x00, 0x00, 0x04, 0x00, 0x00, 0x00, 0x4e, 0xd2, 0xff, 0xff,
  0x00, 0x00, 0x80, 0x3f, 0x01, 0x00, 0x00, 0x00, 0x11, 0x00, 0x00, 0x00,
  0x01, 0x00, 0x00, 0x00, 0x10, 0x00, 0x00, 0x00, 0xf6, 0xfb, 0xff, 0xff,
  0x00, 0x00, 0x00, 0x19, 0x01, 0x00, 0x00, 0x00, 0xce, 0xd1, 0xff, 0xff,
  0x10, 0x00, 0x00, 0x00, 0x12, 0x00, 0x00, 0x00, 0x14, 0x00, 0x00, 0x00,
  0x20, 0x00, 0x00, 0x00, 0x02, 0x00, 0x00, 0x00, 0x01, 0x00, 0x00, 0x00,
  0x03, 0x00, 0x00, 0x00, 0x08, 0x00, 0x00, 0x00, 0x49, 0x64, 0x65, 0x6e,
  0x74, 0x69, 0x74, 0x79, 0x00, 0x00, 0x00, 0x00, 0x08, 0xd2, 0xff, 0xff,
  0x00, 0x00, 0x0e, 0x00, 0x18, 0x00, 0x08, 0x00, 0x0c, 0x00, 0x10, 0x00,
  0x07, 0x00, 0x14, 0x00, 0x0e, 0x00, 0x00, 0x00, 0x00, 0x00, 0x00, 0x08,
  0x03, 0x00, 0x00, 0x00, 0x18, 0x00, 0x00, 0x00, 0x0c, 0x00, 0x00, 0x00,
  0x04, 0x00, 0x00, 0x00, 0xdc, 0xd1, 0xff, 0xff, 0x01, 0x00, 0x00, 0x00,
  0x10, 0x00, 0x00, 0x00, 0x03, 0x00, 0x00, 0x00, 0x0f, 0x00, 0x00, 0x00,
  0x05, 0x00, 0x00, 0x00, 0x02, 0x00, 0x00, 0x00, 0x46, 0xd2, 0xff, 0xff,
  0x10, 0x00, 0x00, 0x00, 0x11, 0x00, 0x00, 0x00, 0x14, 0x00, 0x00, 0x00,
  0x30, 0x00, 0x00, 0x00, 0x02, 0x00, 0x00, 0x00, 0x01, 0x00, 0x00, 0x00,
  0x03, 0x00, 0x00, 0x00, 0x1a, 0x00, 0x00, 0x00, 0x73, 0x65, 0x71, 0x75,
  0x65, 0x6e, 0x74, 0x69, 0x61, 0x6c, 0x2f, 0x64, 0x65, 0x6e, 0x73, 0x65,
  0x5f, 0x31, 0x2f, 0x42, 0x69, 0x61, 0x73, 0x41, 0x64, 0x64, 0x00, 0x00,
  0x38, 0xd2, 0xff, 0xff, 0xd6, 0xfd, 0xff, 0xff, 0x00, 0x00, 0x00, 0x08,
  0x03, 0x00, 0x00, 0x00, 0x24, 0x00, 0x00, 0x00, 0x18, 0x00, 0x00, 0x00,
  0x0c, 0x00, 0x00, 0x00, 0x00, 0x00, 0x06, 0x00, 0x08, 0x00, 0x07, 0x00,
  0x06, 0x00, 0x00, 0x00, 0x00, 0x00, 0x00, 0x01, 0x01, 0x00, 0x00, 0x00,
  0x0f, 0x00, 0x00, 0x00, 0x03, 0x00, 0x00, 0x00, 0x0e, 0x00, 0x00, 0x00,
  0x04, 0x00, 0x00, 0x00, 0x01, 0x00, 0x00, 0x00, 0xfe, 0xfc, 0xff, 0xff,
  0x00, 0x00, 0x00, 0x09, 0x01, 0x00, 0x00, 0x00, 0xd6, 0xd2, 0xff, 0xff,
  0x10, 0x00, 0x00, 0x00, 0x10, 0x00, 0x00, 0x00, 0x14, 0x00, 0x00, 0x00,
  0x2c, 0x00, 0x00, 0x00, 0x02, 0x00, 0x00, 0x00, 0x01, 0x00, 0x00, 0x00,
  0x10, 0x00, 0x00, 0x00, 0x15, 0x00, 0x00, 0x00, 0x73, 0x65, 0x71, 0x75,
  0x65, 0x6e, 0x74, 0x69, 0x61, 0x6c, 0x2f, 0x64, 0x65, 0x6e, 0x73, 0x65,
  0x2f, 0x52, 0x65, 0x6c, 0x75, 0x00, 0x00, 0x00, 0x1c, 0xd3, 0xff, 0xff,
  0x00, 0x00, 0x0a, 0x00, 0x10, 0x00, 0x04, 0x00, 0x08, 0x00, 0x0c, 0x00,
  0x0a, 0x00, 0x00, 0x00, 0x02, 0x00, 0x00, 0x00, 0x10, 0x00, 0x00, 0x00,
  0x04, 0x00, 0x00, 0x00, 0x01, 0x00, 0x00, 0x00, 0x0e, 0x00, 0x00, 0x00,
  0x02, 0x00, 0x00, 0x00, 0x0d, 0x00, 0x00, 0x00, 0x03, 0x00, 0x00, 0x00,
  0x7a, 0xfd, 0xff, 0xff, 0x00, 0x00, 0x00, 0x16, 0x01, 0x00, 0x00, 0x00,
  0x52, 0xd3, 0xff, 0xff, 0x10, 0x00, 0x00, 0x00, 0x0f, 0x00, 0x00, 0x00,
  0x14, 0x00, 0x00, 0x00, 0x30, 0x00, 0x00, 0x00, 0x02, 0x00, 0x00, 0x00,
  0x01, 0x00, 0x00, 0x00, 0x70, 0x00, 0x00, 0x00, 0x1a, 0x00, 0x00, 0x00,
  0x73, 0x65, 0x71, 0x75, 0x65, 0x6e, 0x74, 0x69, 0x61, 0x6c, 0x2f, 0x66,
  0x6c, 0x61, 0x74, 0x74, 0x65, 0x6e, 0x2f, 0x52, 0x65, 0x73, 0x68, 0x61,
  0x70, 0x65, 0x00, 0x00, 0x44, 0xd3, 0xff, 0xff, 0xe2, 0xfe, 0xff, 0xff,
  0x00, 0x00, 0x00, 0x05, 0x01, 0x00, 0x00, 0x00, 0x38, 0x00, 0x00, 0x00,
  0x2c, 0x00, 0x00, 0x00, 0x14, 0x00, 0x00, 0x00, 0x00, 0x00, 0x0e, 0x00,
  0x14, 0x00, 0x00, 0x00, 0x10, 0x00, 0x0c, 0x00, 0x08, 0x00, 0x04, 0x00,
  0x0e, 0x00, 0x00, 0x00, 0x03, 0x00, 0x00, 0x00, 0x01, 0x00, 0x00, 0x00,
  0x03, 0x00, 0x00, 0x00, 0x01, 0x00, 0x00, 0x00, 0x01, 0x00, 0x00, 0x00,
  0x0d, 0x00, 0x00, 0x00, 0x01, 0x00, 0x00, 0x00, 0x0c, 0x00, 0x00, 0x00,
  0xe2, 0xd3, 0xff, 0xff, 0x10, 0x00, 0x00, 0x00, 0x0e, 0x00, 0x00, 0x00,
  0x1c, 0x00, 0x00, 0x00, 0x40, 0x00, 0x00, 0x00, 0x04, 0x00, 0x00, 0x00,
  0x01, 0x00, 0x00, 0x00, 0x07, 0x00, 0x00, 0x00, 0x01, 0x00, 0x00, 0x00,
  0x10, 0x00, 0x00, 0x00, 0x22, 0x00, 0x00, 0x00, 0x73, 0x65, 0x71, 0x75,
  0x65, 0x6e, 0x74, 0x69, 0x61, 0x6c, 0x2f, 0x6d, 0x61, 0x78, 0x5f, 0x70,
  0x6f, 0x6f, 0x6c, 0x69, 0x6e, 0x67, 0x32, 0x64, 0x5f, 0x31, 0x2f, 0x4d,
  0x61, 0x78, 0x50, 0x6f, 0x6f, 0x6c, 0x00, 0x00, 0xe4, 0xd3, 0xff, 0xff,
  0xc2, 0xfe, 0xff, 0xff, 0x00, 0x00, 0x00, 0x01, 0x24, 0x00, 0x00, 0x00,
  0x18, 0x00, 0x00, 0x00, 0x04, 0x00, 0x00, 0x00, 0xb4, 0xfe, 0xff, 0xff,
  0x01, 0x00, 0x00, 0x00, 0x01, 0x00, 0x00, 0x00, 0x00, 0x00, 0x00, 0x01,
  0x01, 0x00, 0x00, 0x00, 0x0c, 0x00, 0x00, 0x00, 0x03, 0x00, 0x00, 0x00,
  0x0b, 0x00, 0x00, 0x00, 0x07, 0x00, 0x00, 0x00, 0x09, 0x00, 0x00, 0x00,
  0x72, 0xd4, 0xff, 0xff, 0x10, 0x00, 0x00, 0x00, 0x0d, 0x00, 0x00, 0x00,
  0x1c, 0x00, 0x00, 0x00, 0x2c, 0x00, 0x00, 0x00, 0x04, 0x00, 0x00, 0x00,
  0x01, 0x00, 0x00, 0x00, 0x15, 0x00, 0x00, 0x00, 0x01, 0x00, 0x00, 0x00,
  0x10, 0x00, 0x00, 0x00, 0x0c, 0x00, 0x00, 0x00, 0x74, 0x66, 0x6c, 0x2e,
  0x63, 0x6f, 0x6e, 0x76, 0x5f, 0x32, 0x64, 0x31, 0x00, 0x00, 0x00, 0x00,
  0xb8, 0xd4, 0xff, 0xff, 0x00, 0x00, 0x0e, 0x00, 0x1a, 0x00, 0x08, 0x00,
  0x0c, 0x00, 0x10, 0x00, 0x07, 0x00, 0x14, 0x00, 0x0e, 0x00, 0x00, 0x00,
  0x00, 0x00, 0x00, 0x05, 0x01, 0x00, 0x00, 0x00, 0x3c, 0x00, 0x00, 0x00,
  0x30, 0x00, 0x00, 0x00, 0x14, 0x00, 0x00, 0x00, 0x00, 0x00, 0x0e, 0x00,
  0x18, 0x00, 0x17, 0x00, 0x10, 0x00, 0x0c, 0x00, 0x08, 0x00, 0x04, 0x00,
  0x0e, 0x00, 0x00, 0x00, 0x03, 0x00, 0x00, 0x00, 0x03, 0x00, 0x00, 0x00,
  0x03, 0x00, 0x00, 0x00, 0x03, 0x00, 0x00, 0x00, 0x00, 0x00, 0x00, 0x01,
  0x01, 0x00, 0x00, 0x00, 0x0b, 0x00, 0x00, 0x00, 0x01, 0x00, 0x00, 0x00,
  0x0a, 0x00, 0x00, 0x00, 0x46, 0xff, 0xff, 0xff, 0x00, 0x00, 0x00, 0x11,
  0x01, 0x00, 0x00, 0x00, 0x1e, 0xd5, 0xff, 0xff, 0x10, 0x00, 0x00, 0x00,
  0x0c, 0x00, 0x00, 0x00, 0x1c, 0x00, 0x00, 0x00, 0x40, 0x00, 0x00, 0x00,
  0x04, 0x00, 0x00, 0x00, 0x01, 0x00, 0x00, 0x00, 0x15, 0x00, 0x00, 0x00,
  0x01, 0x00, 0x00, 0x00, 0x08, 0x00, 0x00, 0x00, 0x20, 0x00, 0x00, 0x00,
  0x73, 0x65, 0x71, 0x75, 0x65, 0x6e, 0x74, 0x69, 0x61, 0x6c, 0x2f, 0x6d,
  0x61, 0x78, 0x5f, 0x70, 0x6f, 0x6f, 0x6c, 0x69, 0x6e, 0x67, 0x32, 0x64,
  0x2f, 0x4d, 0x61, 0x78, 0x50, 0x6f, 0x6f, 0x6c, 0x00, 0x00, 0x00, 0x00,
  0x78, 0xd5, 0xff, 0xff, 0x00, 0x00, 0x0e, 0x00, 0x14, 0x00, 0x00, 0x00,
  0x08, 0x00, 0x0c, 0x00, 0x07, 0x00, 0x10, 0x00, 0x0e, 0x00, 0x00, 0x00,
  0x00, 0x00, 0x00, 0x01, 0x30, 0x00, 0x00, 0x00, 0x24, 0x00, 0x00, 0x00,
  0x10, 0x00, 0x00, 0x00, 0x0c, 0x00, 0x10, 0x00, 0x00, 0x00, 0x04, 0x00,
  0x08, 0x00, 0x0f, 0x00, 0x0c, 0x00, 0x00, 0x00, 0x01, 0x00, 0x00, 0x00,
  0x01, 0x00, 0x00, 0x00, 0x00, 0x00, 0x00, 0x01, 0x01, 0x00, 0x00, 0x00,
  0x0a, 0x00, 0x00, 0x00, 0x03, 0x00, 0x00, 0x00, 0x00, 0x00, 0x00, 0x00,
  0x06, 0x00, 0x00, 0x00, 0x08, 0x00, 0x00, 0x00, 0x00, 0x00, 0x0a, 0x00,
  0x0c, 0x00, 0x07, 0x00, 0x00, 0x00, 0x08, 0x00, 0x0a, 0x00, 0x00, 0x00,
  0x00, 0x00, 0x00, 0x03, 0x01, 0x00, 0x00, 0x00, 0xe2, 0xd5, 0xff, 0xff,
  0x10, 0x00, 0x00, 0x00, 0x0b, 0x00, 0x00, 0x00, 0x1c, 0x00, 0x00, 0x00,
  0x28, 0x00, 0x00, 0x00, 0x04, 0x00, 0x00, 0x00, 0x01, 0x00, 0x00, 0x00,
  0x40, 0x00, 0x00, 0x00, 0x03, 0x00, 0x00, 0x00, 0x08, 0x00, 0x00, 0x00,
  0x0b, 0x00, 0x00, 0x00, 0x74, 0x66, 0x6c, 0x2e, 0x63, 0x6f, 0x6e, 0x76,
  0x5f, 0x32, 0x64, 0x00, 0xcc, 0xd5, 0xff, 0xff, 0xc2, 0xd6, 0xff, 0xff,
  0x04, 0x00, 0x00, 0x00, 0x40, 0x00, 0x00, 0x00, 0x9a, 0xe4, 0x96, 0xbf,
  0x25, 0x94, 0x59, 0xbd, 0x02, 0x45, 0x00, 0xc0, 0x22, 0x62, 0xaf, 0xbf,
  0x60, 0xb4, 0xe7, 0x3f, 0x77, 0x46, 0x7a, 0xbf, 0xae, 0xa2, 0x78, 0xbf,
  0xd3, 0x6b, 0x74, 0x40, 0x41, 0xe0, 0xdb, 0x3a, 0xd3, 0x85, 0xae, 0x3e,
  0x19, 0xac, 0x00, 0x3f, 0x35, 0xbc, 0x74, 0xbf, 0xf7, 0x2e, 0xc6, 0xba,
  0xa7, 0xed, 0x83, 0xbf, 0x34, 0x25, 0xb7, 0xbf, 0x6c, 0x50, 0x82, 0xbf,
  0x6a, 0xd6, 0xff, 0xff, 0x10, 0x00, 0x00, 0x00, 0x0a, 0x00, 0x00, 0x00,
  0x10, 0x00, 0x00, 0x00, 0x20, 0x00, 0x00, 0x00, 0x01, 0x00, 0x00, 0x00,
  0x10, 0x00, 0x00, 0x00, 0x0d, 0x00, 0x00, 0x00, 0x73, 0x74, 0x64, 0x2e,
  0x63, 0x6f, 0x6e, 0x73, 0x74, 0x61, 0x6e, 0x74, 0x31, 0x00, 0x00, 0x00,
  0x4c, 0xd6, 0xff, 0xff, 0x42, 0xd7, 0xff, 0xff, 0x04, 0x00, 0x00, 0x00,
  0x20, 0x00, 0x00, 0x00, 0x84, 0xf3, 0xf0, 0xbf, 0x86, 0x76, 0x15, 0xc0,
  0xe8, 0x67, 0x81, 0xbf, 0xfb, 0x12, 0xf1, 0xbe, 0x5c, 0x60, 0x5f, 0xc0,
  0x79, 0xc1, 0x04, 0xc0, 0xb9, 0x52, 0xf9, 0xbe, 0x6e, 0x59, 0x42, 0xbf,
  0xca, 0xd6, 0xff, 0xff, 0x10, 0x00, 0x00, 0x00, 0x09, 0x00, 0x00, 0x00,
  0x10, 0x00, 0x00, 0x00, 0x20, 0x00, 0x00, 0x00, 0x01, 0x00, 0x00, 0x00,
  0x08, 0x00, 0x00, 0x00, 0x0c, 0x00, 0x00, 0x00, 0x73, 0x74, 0x64, 0x2e,
  0x63, 0x6f, 0x6e, 0x73, 0x74, 0x61, 0x6e, 0x74, 0x00, 0x00, 0x00, 0x00,
  0xac, 0xd6, 0xff, 0xff, 0xa2, 0xd7, 0xff, 0xff, 0x04, 0x00, 0x00, 0x00,
  0x00, 0x08, 0x00, 0x00, 0xce, 0xff, 0xc2, 0x3d, 0x16, 0xe3, 0x99, 0x3e,
  0x99, 0x87, 0x59, 0x3d, 0x84, 0x36, 0x8b, 0x3e, 0xc5, 0x10, 0x1c, 0x3f,
  0x60, 0x0e, 0xaf, 0x3e, 0x64, 0xd4, 0xd1, 0x3c, 0xf9, 0xb5, 0x28, 0xbd,
  0x24, 0xc7, 0x33, 0xbe, 0xec, 0x57, 0x4a, 0xbe, 0xa0, 0x65, 0xe4, 0xbd,
  0xda, 0x86, 0xd1, 0xbd, 0xb9, 0xec, 0x82, 0xbe, 0x77, 0xef, 0x28, 0xbe,
  0xc6, 0x06, 0x60, 0xbe, 0x77, 0xaf, 0xd0, 0xbd, 0x96, 0xc7, 0xff, 0xbd,
  0x1f, 0xe6, 0x4d, 0xbe, 0x06, 0xb6, 0x0a, 0xbe, 0xb9, 0x2e, 0x53, 0xbe,
  0x89, 0x71, 0xa0, 0xbe, 0x93, 0x37, 0x51, 0x3e, 0x6a, 0xc2, 0xe7, 0xbd,
  0x2f, 0x50, 0x98, 0xbd, 0x06, 0x15, 0x7f, 0x3d, 0x8a, 0x09, 0x3d, 0xbe,
  0x40, 0x91, 0xb9, 0xbc, 0x37, 0x62, 0x88, 0xbe, 0x1c, 0x45, 0x6c, 0xbe,
  0x35, 0x17, 0x03, 0x3e, 0x24, 0xa6, 0x9b, 0x3c, 0x00, 0xfe, 0x71, 0x3d,
  0xc7, 0x42, 0x60, 0x3e, 0x92, 0xb8, 0x78, 0xbe, 0xa7, 0x0c, 0x09, 0xbd,
  0xbf, 0x14, 0xd7, 0xbd, 0x28, 0x3e, 0x45, 0x3e, 0x94, 0xd2, 0xb2, 0x3e,
  0x2b, 0x5a, 0x8f, 0x3e, 0xa4, 0x9c, 0xec, 0xbe, 0xd2, 0x48, 0xa9, 0x3e,
  0x9f, 0x42, 0x23, 0xbe, 0x6e, 0x04, 0x5d, 0xbd, 0x39, 0x66, 0x3c, 0xbe,
  0x74, 0xdc, 0x0c, 0xbd, 0xfb, 0x9d, 0x55, 0x3d, 0xd1, 0x5f, 0x6a, 0x3d,
  0x27, 0xa0, 0xd1, 0xbe, 0x4c, 0x9f, 0x86, 0xbe, 0x5f, 0xda, 0x04, 0x3c,
  0x6e, 0x52, 0x61, 0x3d, 0x3c, 0xcc, 0xd8, 0xbc, 0x99, 0xe4, 0x3e, 0x3d,
  0x1d, 0x63, 0x0e, 0x3e, 0xd2, 0x0d, 0x41, 0x3e, 0xde, 0x83, 0x8e, 0xbe,
  0x14, 0x22, 0x10, 0x3e, 0xc0, 0xf7, 0x21, 0x3d, 0xd4, 0x09, 0x66, 0x3e,
  0xe1, 0x3d, 0x98, 0x3e, 0xff, 0x5d, 0x3f, 0x3e, 0x28, 0xfc, 0x18, 0x3e,
  0x58, 0xb1, 0x07, 0xbc, 0xe2, 0x5c, 0x8a, 0xbe, 0x1d, 0x56, 0x63, 0xbe,
  0x7e, 0xd7, 0x14, 0xbe, 0xad, 0x57, 0x86, 0xbe, 0x3a, 0x04, 0xd6, 0xbe,
  0xcc, 0x4f, 0x51, 0xbd, 0x27, 0xd7, 0x4f, 0xbd, 0x27, 0xe2, 0x12, 0x3d,
  0x95, 0x11, 0x36, 0x3d, 0x2a, 0x24, 0x10, 0x3e, 0x3f, 0xfd, 0x64, 0xbe,
  0x9e, 0x8a, 0x91, 0xbe, 0x4c, 0x61, 0x07, 0xbf, 0x8e, 0x22, 0x5a, 0x3d,
  0x73, 0xcc, 0x21, 0x3f, 0x22, 0xce, 0xcb, 0x3c, 0xe0, 0x1a, 0xab, 0xbd,
  0x5c, 0x85, 0x09, 0xbe, 0x76, 0x38, 0x86, 0xbd, 0x13, 0x4f, 0xfb, 0x3e,
  0x09, 0xbc, 0x8e, 0xbe, 0x34, 0xa1, 0x30, 0xbe, 0x82, 0xae, 0xc9, 0xbe,
  0x69, 0xc7, 0x20, 0xbe, 0x34, 0x79, 0xa6, 0xbd, 0xac, 0xae, 0x02, 0x3e,
  0x75, 0x21, 0xca, 0x3d, 0x7f, 0xcb, 0xd1, 0x3c, 0xcb, 0x5a, 0x46, 0x3e,
  0xca, 0x2a, 0x1e, 0xbe, 0xe5, 0x26, 0x90, 0xbe, 0xd3, 0xbd, 0x11, 0xbe,
  0x1d, 0x33, 0x9a, 0x3c, 0x15, 0x01, 0x1c, 0xbe, 0x7f, 0xbb, 0x30, 0x3d,
  0xb5, 0x39, 0xe9, 0x3c, 0xd8, 0xd9, 0x22, 0xbc, 0x54, 0x89, 0x95, 0xbe,
  0x58, 0x9c, 0xb4, 0xbe, 0x98, 0xea, 0xc3, 0xbe, 0x58, 0xac, 0x11, 0x3d,
  0x61, 0x68, 0x87, 0x3e, 0x79, 0x30, 0x0e, 0xbd, 0xd2, 0xe3, 0x91, 0x3d,
  0x36, 0x29, 0x21, 0x3e, 0x28, 0x47, 0x2d, 0x3e, 0xdf, 0xdf, 0xdd, 0x3b,
  0x66, 0x42, 0xc2, 0xbe, 0xee, 0x03, 0x2f, 0xbc, 0x20, 0xa9, 0xc3, 0xbd,
  0x24, 0x45, 0x10, 0x3d, 0x09, 0x6f, 0x91, 0xbd, 0x0c, 0xc9, 0x2f, 0xbd,
  0xf8, 0xd9, 0xab, 0x3e, 0x5f, 0x2a, 0x91, 0x3e, 0x79, 0x4a, 0x97, 0xbe,
  0x8c, 0x47, 0x61, 0xbd, 0x5b, 0x6d, 0xb8, 0xbe, 0x80, 0x03, 0x21, 0xbe,
  0x9b, 0x7d, 0xbe, 0xbe, 0x48, 0xd2, 0xb6, 0xbd, 0x60, 0x0e, 0x88, 0xbe,
  0x72, 0x23, 0xbf, 0x3e, 0x4c, 0xd9, 0x6a, 0x3d, 0xf3, 0x1c, 0xdb, 0xbd,
  0xc3, 0x0f, 0xe9, 0x3e, 0xe2, 0x58, 0x36, 0x3e, 0x90, 0xa9, 0xdd, 0xbc,
  0xf3, 0x50, 0xb7, 0x3c, 0xed, 0x9f, 0xa9, 0x3e, 0x2c, 0x90, 0x93, 0x3d,
  0xc3, 0x27, 0x13, 0xbd, 0x25, 0x9f, 0xa0, 0x3c, 0xe7, 0xfd, 0x3e, 0xbe,
  0x5c, 0xb6, 0xa9, 0xbd, 0xd4, 0x71, 0xd8, 0xbc, 0x73, 0xf7, 0x5b, 0xbc,
  0xdd, 0xe4, 0xbb, 0xbd, 0xf0, 0x40, 0x09, 0x3d, 0x39, 0x0e, 0x3a, 0xbd,
  0x11, 0xbf, 0x2e, 0xbd, 0x6f, 0xc8, 0x68, 0xbe, 0xc0, 0xff, 0x97, 0xbd,
  0x7a, 0xc6, 0xdb, 0xbd, 0x65, 0x3b, 0x74, 0xbd, 0xca, 0x80, 0x6d, 0xbe,
  0xdb, 0x3b, 0x39, 0xbd, 0xe4, 0xd2, 0xb0, 0xbc, 0xce, 0x99, 0x39, 0xbd,
  0xd3, 0x44, 0x89, 0xbe, 0x95, 0x80, 0xb1, 0xbd, 0xc0, 0x09, 0x2f, 0xbe,
  0xae, 0x84, 0x82, 0xbd, 0xf3, 0x15, 0x7c, 0xbe, 0x4b, 0x55, 0x93, 0x3d,
  0x43, 0xca, 0x44, 0xbd, 0xa9, 0x67, 0x83, 0xbd, 0x6d, 0x50, 0x6b, 0xbd,
  0x91, 0x2e, 0x95, 0x3e, 0x98, 0x75, 0x5d, 0x3c, 0x39, 0x2c, 0x81, 0x3e,
  0x9c, 0xdf, 0xc8, 0x3e, 0x0b, 0xbb, 0xdf, 0xbc, 0x44, 0x0d, 0x68, 0xbe,
  0x4e, 0x61, 0xfc, 0x3c, 0xa6, 0x56, 0xe9, 0xbc, 0x45, 0xec, 0x74, 0xbe,
  0xc2, 0x48, 0x29, 0x3d, 0xce, 0x05, 0x8b, 0x3d, 0xeb, 0xa0, 0x12, 0x3e,
  0x20, 0x62, 0xbb, 0x3b, 0x50, 0x2a, 0x96, 0xbe, 0x26, 0xf3, 0xb7, 0xbc,
  0x58, 0xfc, 0x4c, 0xbe, 0xe3, 0x66, 0x57, 0xbe, 0x96, 0x41, 0xe1, 0xbd,
  0x95, 0x34, 0xbf, 0x3c, 0x85, 0x77, 0x8a, 0xbe, 0x24, 0x1e, 0x9a, 0x3e,
  0xac, 0xe4, 0x96, 0xbd, 0xf9, 0x93, 0x17, 0xbe, 0x94, 0x0a, 0xf7, 0xbd,
  0xe9, 0x8a, 0xc2, 0xbe, 0x4e, 0x83, 0x94, 0xbe, 0x32, 0x86, 0x26, 0xbe,
  0xd8, 0x51, 0xea, 0xbe, 0x1e, 0x95, 0x54, 0x3e, 0x57, 0xe0, 0x0c, 0xbd,
  0xef, 0x8a, 0x1e, 0xbe, 0x44, 0x63, 0xc2, 0xbe, 0x09, 0x90, 0xcd, 0xbe,
  0xea, 0xbf, 0x1c, 0xbe, 0x74, 0x98, 0x6b, 0xbe, 0x0d, 0x31, 0x20, 0xbc,
  0xf2, 0x36, 0x13, 0xbe, 0x19, 0xd9, 0xc5, 0xbd, 0x0b, 0x65, 0x89, 0xbd,
  0x07, 0x1f, 0x19, 0xbf, 0xbf, 0x37, 0x57, 0xbe, 0x86, 0x98, 0x00, 0xbf,
  0x98, 0xdc, 0x81, 0xbe, 0x84, 0xcc, 0x63, 0x3e, 0x6e, 0x17, 0x17, 0x3f,
  0x07, 0x4b, 0x95, 0x3d, 0x44, 0xe8, 0xd1, 0xbd, 0x8d, 0xa4, 0x00, 0x3e,
  0x80, 0x09, 0xac, 0xbe, 0xca, 0xd1, 0xb9, 0xbd, 0xb3, 0xc8, 0xb8, 0xbe,
  0xb2, 0xba, 0x65, 0xbe, 0x62, 0xad, 0xaa, 0x3d, 0x74, 0x06, 0x7b, 0x3e,
  0x7f, 0xf9, 0x5e, 0xbe, 0xed, 0x1f, 0x89, 0x3e, 0xf2, 0x89, 0x0b, 0xbe,
  0xc9, 0x88, 0x9b, 0x3e, 0xbe, 0x48, 0xce, 0xbd, 0xc3, 0x08, 0x8d, 0xbe,
  0xc6, 0x4d, 0xc4, 0xbe, 0xde, 0xdb, 0x17, 0xbe, 0x85, 0xa1, 0x76, 0xbd,
  0xbb, 0x4e, 0xda, 0xbe, 0x9b, 0x3c, 0xc8, 0xbd, 0xe1, 0xfd, 0x22, 0xbd,
  0xb1, 0xb8, 0x0d, 0x3e, 0x9a, 0xf8, 0x1b, 0xbe, 0x3f, 0xab, 0x07, 0x3e,
  0xe6, 0x99, 0x7e, 0xbe, 0x92, 0x87, 0xba, 0xbd, 0x6b, 0x25, 0xd6, 0xbe,
  0x45, 0xba, 0xa1, 0xbd, 0xa9, 0x1f, 0x15, 0xbe, 0x90, 0xdc, 0x0e, 0x3e,
  0xbc, 0x60, 0x2c, 0x3e, 0x43, 0x2a, 0x58, 0x3e, 0xe6, 0x35, 0xae, 0xbd,
  0x0f, 0xb2, 0x47, 0xbd, 0x5c, 0x0c, 0x35, 0x3e, 0x1a, 0xed, 0x82, 0xbd,
  0x72, 0x9a, 0xd7, 0xbe, 0xa1, 0x18, 0xdb, 0x3c, 0xd9, 0x3c, 0x8c, 0xbc,
  0x3f, 0xe9, 0x24, 0x3e, 0xe1, 0xbf, 0x90, 0x3e, 0x4a, 0xcd, 0x62, 0xba,
  0x0a, 0x5b, 0x9e, 0xbe, 0xc2, 0xde, 0x8c, 0xbe, 0x6c, 0xad, 0x3d, 0xbf,
  0xef, 0x06, 0x0e, 0xbf, 0xd8, 0x6d, 0x75, 0xbe, 0x94, 0x3a, 0x8a, 0x3d,
  0xd2, 0x6a, 0x12, 0xbd, 0xb6, 0x3f, 0x2a, 0xbe, 0x72, 0xe3, 0x97, 0x3e,
  0xf9, 0xac, 0x8b, 0xbe, 0x0c, 0x6a, 0x05, 0x3e, 0xc5, 0x57, 0x2b, 0xbe,
  0x80, 0x6c, 0xcf, 0xbd, 0x10, 0xad, 0x31, 0x3e, 0x04, 0xe8, 0xfe, 0xbc,
  0x27, 0xac, 0x71, 0xbd, 0x5e, 0x76, 0xc8, 0x3e, 0x82, 0x51, 0x57, 0xbe,
  0x97, 0x33, 0x81, 0xbd, 0x3d, 0x92, 0xe9, 0xbd, 0xf4, 0x47, 0xd1, 0xbd,
  0xfb, 0x28, 0x67, 0x3e, 0x20, 0x0c, 0xe8, 0xbd, 0x4a, 0x3d, 0xa0, 0xbd,
  0xfe, 0x4f, 0x8d, 0x3c, 0x87, 0x26, 0x0f, 0xbe, 0xf5, 0xcb, 0xc7, 0xbd,
  0x9f, 0x2c, 0xbf, 0x3b, 0xaa, 0xcd, 0x9a, 0xbd, 0xec, 0x28, 0x24, 0x3e,
  0xb3, 0x4f, 0xea, 0x3e, 0x0a, 0x02, 0x18, 0xbe, 0x80, 0x03, 0x9f, 0xbd,
  0x98, 0x74, 0x5f, 0xbe, 0xda, 0x53, 0xc3, 0x3e, 0x9d, 0xcf, 0xf2, 0x3e,
  0xe8, 0x06, 0xcc, 0xbd, 0xd1, 0x15, 0x0c, 0x3e, 0x12, 0x9c, 0xd6, 0xbd,
  0x63, 0x52, 0x06, 0xbe, 0x1b, 0xf7, 0x41, 0xbe, 0x79, 0x29, 0x47, 0x3d,
  0xce, 0x08, 0x0d, 0xbe, 0xd8, 0x8d, 0xd9, 0xbd, 0xca, 0x50, 0x2c, 0xbc,
  0xa6, 0xee, 0xba, 0x3d, 0xcf, 0xd4, 0xfc, 0xbd, 0x5c, 0x9d, 0xf6, 0x3d,
  0x3a, 0x2a, 0x05, 0xbe, 0x8a, 0x26, 0x28, 0xbd, 0x65, 0x0f, 0x6d, 0x3c,
  0xa8, 0xd6, 0x00, 0x3e, 0x6d, 0x91, 0x1a, 0xbb, 0xd2, 0xfc, 0x1c, 0x3c,
  0xde, 0xd2, 0xdc, 0x3e, 0x30, 0xb3, 0x97, 0x3d, 0xd4, 0xc1, 0xac, 0xb9,
  0xbc, 0x48, 0x61, 0xbc, 0x93, 0x35, 0x9d, 0x3d, 0xaf, 0xde, 0x98, 0xbc,
  0x69, 0xfe, 0x81, 0xbd, 0x03, 0x96, 0xe1, 0x3d, 0x69, 0xde, 0x46, 0xbe,
  0x42, 0x4f, 0xca, 0xbd, 0xf7, 0x57, 0x04, 0xbe, 0x1a, 0x33, 0xb8, 0xbd,
  0x5d, 0x7f, 0x2a, 0x3d, 0xe1, 0x4f, 0x7c, 0x3e, 0x6d, 0x7f, 0x29, 0xbd,
  0x08, 0xaf, 0xd6, 0xbc, 0x75, 0x9c, 0xaa, 0x3e, 0xa8, 0x98, 0x1a, 0xb8,
  0x60, 0x44, 0xb4, 0xbd, 0x4d, 0xd8, 0x79, 0xbd, 0xe4, 0x99, 0x10, 0xbe,
  0xb4, 0xe2, 0x53, 0x3b, 0x44, 0x54, 0x62, 0xbe, 0xc0, 0x9d, 0xa5, 0xbe,
  0x9d, 0xd9, 0x9b, 0xbe, 0x97, 0x07, 0x99, 0xbd, 0x14, 0xf5, 0x8b, 0xbe,
  0x9c, 0x04, 0xb1, 0x3c, 0xbc, 0xbc, 0x4d, 0x3e, 0x94, 0x54, 0x81, 0x3a,
  0xf7, 0xf6, 0xdd, 0xbd, 0x13, 0x43, 0x8d, 0xbe, 0x94, 0x98, 0xe7, 0xbe,
  0x7a, 0x7c, 0x7d, 0xbc, 0x99, 0x04, 0xde, 0xbd, 0xbf, 0xcb, 0x1e, 0xbc,
  0x5f, 0x82, 0x62, 0xbd, 0x08, 0xd2, 0x07, 0xbd, 0x22, 0xdc, 0x11, 0xbe,
  0xca, 0xba, 0x01, 0xbe, 0x73, 0xab, 0x7a, 0xbe, 0xbd, 0xea, 0x92, 0x3c,
  0x55, 0xde, 0xca, 0x3e, 0xf8, 0x6e, 0x59, 0x3c, 0x37, 0x22, 0x61, 0x3e,
  0xf6, 0x28, 0x17, 0x3e, 0x6e, 0xd7, 0xf6, 0x3d, 0x07, 0x74, 0x71, 0xbd,
  0x6c, 0xb5, 0x74, 0xbe, 0xd8, 0xa9, 0x29, 0x3d, 0xbf, 0x94, 0x94, 0xbd,
  0x1c, 0x0a, 0x01, 0xbe, 0x83, 0x21, 0xce, 0xbd, 0x3e, 0x59, 0xf0, 0xbd,
  0xd1, 0xda, 0x1f, 0x3e, 0x77, 0xbb, 0x25, 0x3f, 0x9a, 0xdb, 0x1b, 0x3c,
  0x1f, 0x8b, 0x42, 0xbe, 0x1c, 0x53, 0x0e, 0x3e, 0x96, 0x51, 0x62, 0xbe,
  0x51, 0xc0, 0x26, 0x3e, 0xdb, 0xfb, 0x69, 0xbe, 0x96, 0xc0, 0xe2, 0xbc,
  0x11, 0x36, 0x74, 0x3e, 0xaf, 0xdb, 0x1b, 0x3e, 0x30, 0x50, 0xab, 0xbe,
  0x63, 0x3b, 0x89, 0x3e, 0x5f, 0xbb, 0xf8, 0xbd, 0x6a, 0xe3, 0x7e, 0x3e,
  0x24, 0x65, 0xe6, 0x3d, 0x45, 0x76, 0x84, 0xbe, 0x34, 0xb0, 0xc1, 0x3c,
  0x31, 0xd3, 0x12, 0xbe, 0x0a, 0x5d, 0x98, 0xbe, 0xaf, 0xbb, 0x4d, 0xbe,
  0x94, 0xcd, 0xee, 0x3c, 0xdb, 0x7e, 0xad, 0x3c, 0x90, 0x8e, 0x1b, 0x3e,
  0xdf, 0x88, 0x25, 0x3d, 0xec, 0xba, 0x81, 0x3d, 0xcd, 0x35, 0x0d, 0xbb,
  0xb3, 0xb4, 0xb0, 0xbe, 0xb6, 0xde, 0x05, 0x3e, 0x5f, 0x74, 0xae, 0xbe,
  0xdd, 0xc5, 0xa1, 0xbe, 0xb2, 0xe7, 0xcc, 0x3d, 0xb6, 0xee, 0xcc, 0xbe,
  0x76, 0xfc, 0xac, 0x3c, 0x00, 0x2a, 0xf1, 0xbd, 0x3e, 0x85, 0x5b, 0x3e,
  0x2e, 0x81, 0xe3, 0xbd, 0x2c, 0x11, 0xfb, 0xbd, 0xce, 0x2e, 0x76, 0x3e,
  0x4e, 0xbd, 0x29, 0xbb, 0x9c, 0xe8, 0xb7, 0xbe, 0x9a, 0x25, 0x68, 0xbe,
  0x6b, 0xa9, 0x36, 0x3d, 0x0e, 0x8f, 0xc2, 0x3b, 0xf5, 0x73, 0x21, 0xbe,
  0x3f, 0x3f, 0x4e, 0xbd, 0x17, 0x89, 0x07, 0xbd, 0x4c, 0xa4, 0xcc, 0x3c,
  0x56, 0x1c, 0x83, 0xbe, 0x90, 0x32, 0x9f, 0xbe, 0x97, 0xb7, 0xaf, 0xbd,
  0x18, 0x12, 0xf2, 0x3d, 0xb1, 0x8a, 0x26, 0x3e, 0xff, 0xc4, 0x21, 0xbe,
  0x33, 0x50, 0x1f, 0xbe, 0x24, 0x8b, 0xfa, 0xbd, 0x5a, 0x3f, 0x00, 0xbe,
  0x59, 0x72, 0x20, 0xbd, 0x48, 0x10, 0x22, 0xbd, 0xf0, 0x6d, 0x13, 0xbd,
  0x2b, 0x8f, 0x7b, 0xbe, 0x80, 0xf1, 0x34, 0xbe, 0x7f, 0x89, 0xbd, 0xbd,
  0xc3, 0x6e, 0xc4, 0xbe, 0x20, 0xbe, 0x0a, 0xbd, 0xe0, 0x97, 0x1b, 0x3f,
  0x51, 0xd2, 0xb9, 0xbb, 0x46, 0x0a, 0x9d, 0xbd, 0x72, 0x25, 0xde, 0xbc,
  0x91, 0x97, 0x3e, 0xbe, 0x14, 0xb7, 0x18, 0xbe, 0xc2, 0xe9, 0x31, 0xbf,
  0xe2, 0x4f, 0xeb, 0x3e, 0x17, 0xe3, 0x91, 0xbe, 0xe0, 0xc1, 0x25, 0x3e,
  0xfc, 0xbf, 0xe2, 0xbd, 0x31, 0x88, 0x84, 0x3e, 0xec, 0x19, 0x15, 0xbe,
  0xa2, 0xfc, 0x4a, 0x3e, 0x9f, 0xdb, 0xb7, 0xbe, 0x84, 0xfb, 0xf2, 0xbd,
  0x7a, 0xa3, 0xfc, 0xbe, 0x50, 0x56, 0x23, 0xbd, 0xb5, 0x2f, 0x8a, 0xbd,
  0x6b, 0xdf, 0xed, 0x3d, 0xb3, 0x34, 0xbd, 0xbd, 0xd6, 0x6b, 0x6c, 0x3e,
  0x89, 0x8f, 0x8a, 0xbc, 0x7c, 0x22, 0x60, 0xbe, 0xc5, 0x82, 0x6e, 0xbe,
  0x95, 0xca, 0x11, 0xbd, 0x5b, 0x3e, 0xb7, 0xbd, 0x33, 0xc3, 0xb2, 0xbe,
  0x32, 0x2a, 0xd5, 0xbd, 0x02, 0x9b, 0x8e, 0xbe, 0xa6, 0xaa, 0xa2, 0xbd,
  0x56, 0xa9, 0x9b, 0xbe, 0x54, 0xa8, 0xb1, 0x3a, 0xe2, 0x00, 0x90, 0xbe,
  0xd2, 0x25, 0x4e, 0xbd, 0xb0, 0x53, 0x36, 0xbe, 0xd3, 0x83, 0xa9, 0xbd,
  0x67, 0xfd, 0x22, 0xbe, 0x74, 0xc5, 0xe3, 0xbd, 0xab, 0x36, 0x1d, 0xbe,
  0x71, 0x1e, 0x90, 0xbc, 0xbb, 0x3e, 0xd6, 0xbd, 0xc7, 0x9e, 0x2a, 0xbd,
  0x2a, 0xc5, 0x5c, 0xbd, 0x0f, 0xdd, 0xc2, 0xbc, 0x0c, 0x78, 0xe1, 0x3b,
  0xe3, 0x4f, 0xd8, 0xbd, 0x24, 0xa4, 0x68, 0xbc, 0x84, 0xd1, 0x40, 0x3d,
  0xef, 0x2f, 0x7e, 0x3c, 0xd9, 0x1f, 0x6e, 0xbd, 0x6f, 0xda, 0xda, 0x3e,
  0x70, 0xa1, 0xd4, 0x3d, 0x53, 0xb7, 0xf7, 0x3e, 0x03, 0x10, 0xb8, 0x3d,
  0xa9, 0x4b, 0x24, 0x3d, 0x6b, 0xa9, 0xf8, 0x3d, 0xd1, 0x9b, 0xd7, 0x3a,
  0x9d, 0x4a, 0xfe, 0x3d, 0x7a, 0x5a, 0x9f, 0xbe, 0x79, 0x89, 0x36, 0xbe,
  0xe1, 0x5e, 0x25, 0xbe, 0xaf, 0x8b, 0x29, 0xbe, 0xac, 0x31, 0xd2, 0xbe,
  0x1d, 0x10, 0x72, 0xbe, 0xb0, 0x3c, 0xa8, 0xbe, 0xd8, 0xd5, 0x0d, 0xbe,
  0x40, 0x5f, 0x95, 0x3d, 0x4b, 0x4c, 0xba, 0x3d, 0x4e, 0x34, 0xcd, 0x3d,
  0x72, 0xb6, 0xac, 0x3d, 0xd7, 0x51, 0x8b, 0x3e, 0xa2, 0x09, 0x01, 0xbe,
  0x6b, 0x3d, 0xfa, 0xbe, 0x09, 0xf6, 0x28, 0xbc, 0x3f, 0xe0, 0x82, 0x3d,
  0xbc, 0xbc, 0x7e, 0x3e, 0x50, 0x7b, 0xc2, 0xbc, 0x20, 0x34, 0x09, 0x3e,
  0x17, 0x87, 0x96, 0x3d, 0x41, 0xa0, 0x2d, 0x3e, 0xb8, 0x3e, 0x0c, 0xbe,
  0x33, 0x1a, 0x19, 0xbe, 0xeb, 0x84, 0x75, 0xbe, 0xa7, 0xda, 0xb6, 0xbe,
  0x95, 0xac, 0x9b, 0xbe, 0xad, 0x03, 0x80, 0xbd, 0x81, 0x73, 0x8f, 0xbd,
  0xb6, 0xbb, 0x7c, 0x3d, 0x38, 0x60, 0x17, 0x3e, 0x68, 0x59, 0x7b, 0xbe,
  0x0a, 0xdf, 0xff, 0xff, 0x10, 0x00, 0x00, 0x00, 0x08, 0x00, 0x00, 0x00,
  0x1c, 0x00, 0x00, 0x00, 0x38, 0x00, 0x00, 0x00, 0x04, 0x00, 0x00, 0x00,
  0x10, 0x00, 0x00, 0x00, 0x04, 0x00, 0x00, 0x00, 0x01, 0x00, 0x00, 0x00,
  0x08, 0x00, 0x00, 0x00, 0x1a, 0x00, 0x00, 0x00, 0x73, 0x65, 0x71, 0x75,
  0x65, 0x6e, 0x74, 0x69, 0x61, 0x6c, 0x2f, 0x63, 0x6f, 0x6e, 0x76, 0x32,
  0x64, 0x5f, 0x31, 0x2f, 0x43, 0x6f, 0x6e, 0x76, 0x32, 0x44, 0x00, 0x00,
  0x04, 0xdf, 0xff, 0xff, 0xfa, 0xdf, 0xff, 0xff, 0x04, 0x00, 0x00, 0x00,
  0x80, 0x01, 0x00, 0x00, 0xe7, 0x48, 0xaa, 0x3d, 0x7b, 0xe6, 0xd1, 0xbd,
  0x27, 0x90, 0x3f, 0xbb, 0x1e, 0xfe, 0x06, 0x3f, 0x4f, 0x4d, 0x96, 0x3e,
  0xdf, 0x37, 0xcd, 0x3c, 0xe1, 0x0d, 0x83, 0xbe, 0x5d, 0x1a, 0xc8, 0xbd,
  0xf9, 0x80, 0x6f, 0x3d, 0x21, 0x8d, 0x9f, 0xbe, 0x0a, 0x2f, 0x15, 0xbe,
  0x10, 0x62, 0x91, 0xbd, 0xf7, 0x19, 0x91, 0x3d, 0xa9, 0x6e, 0xd2, 0x3d,
  0xd7, 0x47, 0x32, 0xbe, 0x34, 0x5b, 0x21, 0xbd, 0x6e, 0x49, 0x1e, 0x3e,
  0x05, 0x64, 0xe2, 0xbd, 0xc1, 0xed, 0x4a, 0x3c, 0x62, 0xd8, 0xc0, 0xbd,
  0x8b, 0x37, 0x3a, 0xbd, 0x66, 0x38, 0xd2, 0x3d, 0x84, 0x9b, 0xee, 0xbd,
  0x85, 0xae, 0x97, 0x3d, 0x00, 0xbb, 0xa8, 0x3e, 0xea, 0x39, 0x4b, 0x3e,
  0x1f, 0x93, 0x61, 0x3e, 0x26, 0xd8, 0x00, 0xbd, 0x1b, 0xe1, 0xce, 0x3d,
  0x7d, 0x84, 0x18, 0xbe, 0xfa, 0x57, 0x13, 0xbe, 0xc2, 0x64, 0x43, 0xbe,
  0xf8, 0x22, 0x37, 0xbd, 0xe7, 0xcb, 0xbd, 0xbd, 0xb0, 0xa2, 0x31, 0xbe,
  0x40, 0x43, 0xa3, 0xbd, 0xe6, 0x21, 0xd3, 0x3c, 0xda, 0x71, 0xe4, 0xbd,
  0x5c, 0xa7, 0xb5, 0xbd, 0xab, 0x61, 0x63, 0xbe, 0x8a, 0x32, 0x68, 0x3e,
  0x9f, 0x77, 0xa9, 0xbd, 0x51, 0x8b, 0x11, 0x3e, 0xb0, 0x9e, 0xde, 0xbd,
  0x44, 0x85, 0x94, 0xbc, 0x0c, 0x19, 0x45, 0xbd, 0x55, 0x12, 0x1e, 0xbe,
  0xa3, 0x62, 0xbb, 0x3d, 0x5f, 0x9a, 0xf3, 0x3c, 0x27, 0xc1, 0xaf, 0x3d,
  0xe7, 0xaa, 0x39, 0xbe, 0x5f, 0x5f, 0x27, 0xbe, 0xbc, 0x39, 0x32, 0x3e,
  0x3c, 0xc9, 0xa5, 0xbe, 0x35, 0x29, 0xc1, 0x3d, 0x75, 0x9f, 0xde, 0xbc,
  0xbe, 0x57, 0xf0, 0x3a, 0x88, 0xd7, 0x8c, 0x3d, 0xb3, 0x63, 0x14, 0xbe,
  0xe1, 0x47, 0xce, 0x3e, 0xfe, 0x87, 0xa9, 0xbc, 0x9c, 0x5a, 0x13, 0xbd,
  0x4c, 0x0c, 0x62, 0xbb, 0x64, 0x08, 0x02, 0xbe, 0x43, 0x4b, 0x01, 0xbf,
  0x36, 0x0b, 0x76, 0xbe, 0xfe, 0x44, 0x0f, 0x3d, 0x37, 0x2a, 0x90, 0x3e,
  0x45, 0xdf, 0xf0, 0x3b, 0x36, 0x82, 0x0e, 0x3e, 0x84, 0x80, 0x81, 0x3e,
  0x3b, 0x04, 0x6c, 0x3e, 0x09, 0x95, 0x1c, 0x3e, 0x98, 0xaf, 0x8b, 0xbe,
  0x7f, 0xf9, 0x86, 0xbd, 0x0e, 0x3c, 0x3f, 0xbe, 0x7d, 0x7f, 0x27, 0x3e,
  0xd1, 0x46, 0xac, 0xbe, 0xbd, 0x79, 0x56, 0x3e, 0x0f, 0x0b, 0xb7, 0x3d,
  0x62, 0x54, 0xc9, 0x3d, 0x5a, 0x30, 0x10, 0x3e, 0x65, 0x81, 0xda, 0x3d,
  0x9c, 0xcf, 0xa8, 0x3e, 0xe0, 0x8a, 0x71, 0xbd, 0xe0, 0xc2, 0x5c, 0x3c,
  0x19, 0x35, 0x98, 0xbd, 0x99, 0x7d, 0x12, 0xbd, 0x63, 0x1f, 0xa7, 0x3d,
  0xae, 0xbd, 0x1b, 0xbb, 0x17, 0x8d, 0x82, 0xbd, 0x54, 0x17, 0x9c, 0x3d,
  0x40, 0x76, 0x57, 0xbd, 0x7e, 0x77, 0x97, 0x3c, 0x52, 0xf0, 0xb1, 0x3d,
  0x56, 0xfc, 0xfb, 0xbd, 0xe2, 0xe0, 0xff, 0xff, 0x10, 0x00, 0x00, 0x00,
  0x07, 0x00, 0x00, 0x00, 0x1c, 0x00, 0x00, 0x00, 0x38, 0x00, 0x00, 0x00,
  0x04, 0x00, 0x00, 0x00, 0x08, 0x00, 0x00, 0x00, 0x04, 0x00, 0x00, 0x00,
  0x03, 0x00, 0x00, 0x00, 0x01, 0x00, 0x00, 0x00, 0x18, 0x00, 0x00, 0x00,
  0x73, 0x65, 0x71, 0x75, 0x65, 0x6e, 0x74, 0x69, 0x61, 0x6c, 0x2f, 0x63,
  0x6f, 0x6e, 0x76, 0x32, 0x64, 0x2f, 0x43, 0x6f, 0x6e, 0x76, 0x32, 0x44,
  0x00, 0x00, 0x00, 0x00, 0xdc, 0xe0, 0xff, 0xff, 0xd2, 0xe1, 0xff, 0xff,
  0x04, 0x00, 0x00, 0x00, 0xc0, 0x00, 0x00, 0x00, 0xf8, 0x8c, 0xa3, 0x3e,
  0x26, 0x01, 0xc1, 0x3d, 0x5e, 0x40, 0x3c, 0x3e, 0x53, 0x86, 0xca, 0xbe,
  0x35, 0xf2, 0x19, 0x3e, 0x67, 0xbb, 0x01, 0xbe, 0x2a, 0x92, 0xd7, 0x3d,
  0x8d, 0x08, 0xbb, 0xbe, 0x09, 0xe0, 0xbe, 0x3e, 0x97, 0x29, 0x7c, 0xbe,
  0x3f, 0x25, 0x58, 0x3e, 0xc2, 0x28, 0x09, 0x3e, 0xae, 0xd2, 0xea, 0xbe,
  0x91, 0x8b, 0xac, 0xbe, 0x0f, 0x4f, 0xc9, 0xbd, 0xfc, 0x8c, 0x9f, 0x3d,
  0xf3, 0x93, 0xaa, 0x3e, 0x5b, 0x72, 0x40, 0x3e, 0x32, 0x55, 0x4b, 0x3e,
  0x2b, 0x64, 0xdd, 0xbe, 0x6d, 0x01, 0x86, 0x3e, 0x0f, 0x71, 0x5e, 0xbe,
  0x53, 0x36, 0xb1, 0x3d, 0xfb, 0x83, 0xac, 0xbe, 0x83, 0xea, 0xab, 0x3e,
  0x56, 0x59, 0x38, 0x3e, 0xab, 0xbb, 0x82, 0x3e, 0x35, 0x9b, 0x23, 0x3e,
  0x1a, 0xe3, 0x87, 0x3e, 0x99, 0xd4, 0xa3, 0xbe, 0x57, 0xb6, 0x1f, 0xbe,
  0xcd, 0xa7, 0x19, 0x3d, 0xf1, 0xa5, 0xc6, 0x3e, 0x52, 0x4c, 0xee, 0x3d,
  0x62, 0x68, 0x22, 0xbc, 0x38, 0x24, 0x67, 0x3e, 0x41, 0x17, 0x8d, 0x3e,
  0x93, 0x1c, 0x14, 0xbf, 0xaa, 0x3f, 0x92, 0x3e, 0x8b, 0xaf, 0x98, 0xbe,
  0xa1, 0xd5, 0x94, 0x3e, 0xa6, 0xcc, 0xcd, 0x3e, 0x1d, 0x56, 0x4c, 0x3e,
  0x56, 0x15, 0xd5, 0x3d, 0xdd, 0x66, 0x8b, 0xbe, 0xc7, 0xf2, 0xd9, 0xbe,
  0x31, 0x37, 0xd6, 0xbe, 0x4b, 0x5e, 0x7a, 0x3d, 0xfa, 0xe1, 0xff, 0xff,
  0x10, 0x00, 0x00, 0x00, 0x06, 0x00, 0x00, 0x00, 0x14, 0x00, 0x00, 0x00,
  0x30, 0x00, 0x00, 0x00, 0x02, 0x00, 0x00, 0x00, 0x03, 0x00, 0x00, 0x00,
  0x10, 0x00, 0x00, 0x00, 0x19, 0x00, 0x00, 0x00, 0x73, 0x65, 0x71, 0x75,
  0x65, 0x6e, 0x74, 0x69, 0x61, 0x6c, 0x2f, 0x64, 0x65, 0x6e, 0x73, 0x65,
  0x5f, 0x31, 0x2f, 0x4d, 0x61, 0x74, 0x4d, 0x75, 0x6c, 0x00, 0x00, 0x00,
  0xec, 0xe1, 0xff, 0xff, 0xe2, 0xe2, 0xff, 0xff, 0x04, 0x00, 0x00, 0x00,
  0x00, 0x1c, 0x00, 0x00, 0xb0, 0x18, 0xbe, 0xbe, 0xb0, 0xf4, 0x3a, 0xbe,
  0xe3, 0x09, 0x0c, 0xbe, 0x43, 0x20, 0x68, 0xbe, 0xc8, 0xfb, 0x23, 0xbf,
  0xde, 0x64, 0x03, 0xbe, 0x95, 0x68, 0x18, 0xbc, 0x61, 0x5f, 0x91, 0xbd,
  0xcd, 0xe2, 0x10, 0xbe, 0xa9, 0x57, 0x87, 0x3d, 0x9b, 0x7b, 0xea, 0x3d,
  0x68, 0xea, 0x1a, 0x3b, 0x85, 0x83, 0x5f, 0x3e, 0xe7, 0xeb, 0x2d, 0xbe,
  0x73, 0x8b, 0x94, 0x3d, 0x12, 0xfd, 0xb9, 0xbc, 0xab, 0xf5, 0x03, 0xbf,
  0x2f, 0x24, 0x78, 0x3d, 0xfe, 0x76, 0x0b, 0x3d, 0xb4, 0xed, 0x8f, 0xbc,
  0xe7, 0xd9, 0x9a, 0xbe, 0x22, 0xee, 0x1b, 0xbe, 0x7e, 0x48, 0x94, 0x3e,
  0xb9, 0x56, 0x69, 0xbd, 0x7e, 0x75, 0x66, 0x3e, 0x8f, 0xae, 0x74, 0x3d,
  0xb2, 0x64, 0x4b, 0x3e, 0xda, 0x74, 0x88, 0xbe, 0x69, 0xdc, 0x19, 0x3e,
  0x2a, 0xaa, 0x07, 0x3d, 0x4b, 0x61, 0x03, 0xbe, 0x84, 0x17, 0xa1, 0x3e,
  0xbc, 0x24, 0xb4, 0xbc, 0x92, 0xde, 0xe9, 0x3c, 0x7f, 0x9e, 0x23, 0x3d,
  0x88, 0x56, 0x1e, 0x3e, 0x11, 0x77, 0x12, 0xbe, 0xd9, 0xed, 0x02, 0xbe,
  0x3f, 0x04, 0xd6, 0xbd, 0xdc, 0x05, 0x82, 0xbe, 0x2b, 0x7e, 0x4d, 0x3d,
  0xbb, 0xae, 0x92, 0x3c, 0x69, 0xdb, 0x5d, 0x3d, 0x9c, 0x1a, 0xa9, 0x3d,
  0x5b, 0xcd, 0x4f, 0x3e, 0xa8, 0x9a, 0x55, 0x3d, 0x29, 0x92, 0x87, 0xbd,
  0x7e, 0x65, 0x95, 0x3e, 0xdf, 0xdf, 0x04, 0xbc, 0xac, 0x20, 0x96, 0x3d,
  0x70, 0x6e, 0xb7, 0xbd, 0xcb, 0x0d, 0xb5, 0xbd, 0xf6, 0xcd, 0x75, 0xbd,
  0x06, 0x37, 0x98, 0xbd, 0x7a, 0xf0, 0xd0, 0x3c, 0xc6, 0x8b, 0x36, 0xbe,
  0x2c, 0x8f, 0xa2, 0x3d, 0xf1, 0x37, 0x40, 0x3d, 0x76, 0x63, 0x58, 0x3e,
  0x5f, 0x2b, 0x9a, 0xbc, 0xcf, 0xb5, 0xb0, 0x3d, 0x75, 0x48, 0xa4, 0x3e,
  0xd9, 0x1e, 0xb8, 0xbd, 0xd4, 0x5b, 0xaf, 0x3e, 0x96, 0xed, 0x0b, 0xbd,
  0x66, 0x7d, 0x81, 0x3d, 0x99, 0xa4, 0x8f, 0x3e, 0x8a, 0xb5, 0x73, 0x3e,
  0xd4, 0x9e, 0x75, 0x3d, 0x49, 0xca, 0xeb, 0xbd, 0xfa, 0xb7, 0x09, 0x3e,
  0xbb, 0xa8, 0x46, 0xbc, 0x96, 0xe6, 0xca, 0x3d, 0x6d, 0xcb, 0x5d, 0x3c,
  0xeb, 0x23, 0xe3, 0x3d, 0x5b, 0xe7, 0x85, 0xbd, 0x06, 0x72, 0x3e, 0x3e,
  0xc1, 0x7f, 0xfb, 0x3d, 0x93, 0xe5, 0x71, 0xbd, 0xac, 0xf7, 0x07, 0x3f,
  0x51, 0xe0, 0xc0, 0xbd, 0x7a, 0xa1, 0x7e, 0xbe, 0x3c, 0x96, 0x04, 0xbd,
  0xbc, 0x86, 0xe9, 0xbd, 0x05, 0xc6, 0x92, 0xbd, 0x02, 0x12, 0x3c, 0xbe,
  0xe2, 0x5d, 0xa6, 0x3e, 0xf5, 0xd0, 0x06, 0x3e, 0xb0, 0x6b, 0x0e, 0x3e,
  0x93, 0x63, 0xd8, 0x3c, 0xe0, 0x35, 0x3c, 0xbe, 0xc4, 0xc2, 0xb3, 0xbd,
  0x8d, 0xde, 0xc2, 0x3e, 0x1d, 0xbc, 0x08, 0xbc, 0x61, 0xd8, 0x07, 0xbf,
  0xbc, 0x93, 0x21, 0x3d, 0xee, 0x7e, 0xf3, 0xbd, 0x13, 0xc0, 0x90, 0xbb,
  0x4c, 0x8b, 0x55, 0xbe, 0x9d, 0x8f, 0x77, 0x3d, 0x3d, 0x33, 0x8c, 0xbd,
  0xc1, 0x20, 0xcf, 0x3c, 0x68, 0xbe, 0xf0, 0x3d, 0x34, 0xae, 0x6d, 0x3d,
  0xf1, 0xf9, 0x6b, 0xbe, 0x6b, 0x0d, 0x98, 0x3c, 0x20, 0x30, 0x0c, 0xbe,
  0xa4, 0x3b, 0x48, 0xbf, 0xc7, 0xe5, 0x86, 0x3c, 0xe7, 0x4f, 0x3a, 0xbe,
  0x6c, 0x4f, 0xf5, 0xbd, 0xcd, 0x08, 0xd7, 0xbd, 0xbd, 0x04, 0xfb, 0xbd,
  0xca, 0xab, 0xf5, 0xbd, 0xf0, 0xba, 0xe9, 0xbd, 0x71, 0x8e, 0x4d, 0xbe,
  0x3f, 0x75, 0x98, 0xbe, 0xf7, 0xa6, 0x0d, 0xbe, 0x38, 0xf3, 0x30, 0x3c,
  0x36, 0xc0, 0x23, 0xbe, 0x40, 0x30, 0x8c, 0xbe, 0xbf, 0x34, 0x7f, 0xbe,
  0x07, 0xb3, 0x09, 0xbf, 0x3a, 0xd9, 0x86, 0xbe, 0xb7, 0xca, 0x54, 0xbd,
  0x5b, 0xf0, 0x38, 0xbe, 0x66, 0x5d, 0x64, 0xbe, 0xe2, 0x84, 0x95, 0xbe,
  0xfd, 0xef, 0x9b, 0xbd, 0x0d, 0xd7, 0x3e, 0xbb, 0x7b, 0xc7, 0x7c, 0xbd,
  0x9c, 0xdd, 0xfd, 0xbd, 0x6e, 0xac, 0x0b, 0xbe, 0x65, 0x42, 0x6e, 0xbe,
  0x58, 0x30, 0xb5, 0x3d, 0x83, 0xe9, 0x68, 0xbd, 0x30, 0x81, 0x6f, 0xbe,
  0x82, 0x47, 0xa2, 0xbd, 0xad, 0x80, 0xda, 0xbe, 0x87, 0xff, 0xba, 0xbd,
  0x4e, 0x88, 0xc3, 0xbe, 0x18, 0x18, 0x45, 0xbe, 0x32, 0xd7, 0x90, 0xbe,
  0x50, 0xe8, 0xb9, 0xbd, 0xb2, 0x6c, 0xcd, 0xbc, 0xb8, 0xea, 0x3e, 0xbe,
  0x6b, 0xda, 0xdf, 0x3d, 0xcd, 0x67, 0x74, 0xbe, 0x38, 0xb9, 0xbb, 0xbe,
  0x70, 0x6d, 0x6d, 0xbe, 0x94, 0x59, 0x07, 0xbe, 0x7f, 0xa8, 0x64, 0xbd,
  0x87, 0x30, 0xc8, 0xbd, 0x27, 0xb8, 0xec, 0xbd, 0x58, 0x02, 0xd2, 0xbe,
  0x42, 0xcc, 0x32, 0x3d, 0x70, 0xa6, 0x2b, 0xbe, 0x04, 0x63, 0xee, 0xbd,
  0x02, 0xc7, 0x90, 0xbe, 0x26, 0x20, 0xc1, 0xbd, 0xe6, 0x12, 0x08, 0x3e,
  0x17, 0x3c, 0xac, 0xbe, 0x53, 0x96, 0xe3, 0xbe, 0xdb, 0x6d, 0x10, 0x3c,
  0x0e, 0xd6, 0xdf, 0xbd, 0xbc, 0x28, 0x03, 0xbe, 0x82, 0x57, 0x94, 0x3d,
  0x0d, 0x9e, 0x39, 0x3e, 0x2a, 0x90, 0x59, 0xbe, 0xa7, 0x9d, 0xdd, 0xbd,
  0x11, 0x91, 0xf7, 0xbe, 0xb1, 0xa2, 0x26, 0xbe, 0x09, 0x5b, 0xea, 0xbc,
  0xa3, 0x67, 0xc6, 0x3d, 0x36, 0xdb, 0x89, 0xbe, 0x4a, 0x87, 0xb5, 0xbc,
  0xa9, 0xce, 0xcb, 0x3c, 0xc3, 0xf4, 0x58, 0x3d, 0x45, 0xb1, 0x76, 0x3e,
  0x74, 0x9d, 0x85, 0x3e, 0xb3, 0x76, 0x92, 0xbe, 0x9e, 0x47, 0x93, 0xbe,
  0x1c, 0xe2, 0x40, 0x3e, 0xf2, 0x6d, 0x64, 0xbd, 0x19, 0x12, 0xfa, 0xbc,
  0xa6, 0xd6, 0x0d, 0x3e, 0x5c, 0x17, 0xdc, 0xbe, 0x89, 0x0d, 0x7d, 0x3c,
  0x8d, 0xe1, 0x96, 0xbd, 0xf6, 0x88, 0x86, 0x3e, 0x24, 0x22, 0x6e, 0x3c,
  0xc7, 0x1c, 0x4c, 0x3e, 0x7c, 0x00, 0x30, 0xbe, 0x28, 0x32, 0x28, 0x3e,
  0xb7, 0x80, 0x92, 0x3d, 0x0a, 0x5b, 0xdb, 0x3d, 0x50, 0x5d, 0x85, 0xbc,
  0xf7, 0x40, 0x34, 0xbe, 0xf0, 0xa4, 0xa1, 0x3e, 0x34, 0x19, 0xe8, 0x3e,
  0xe4, 0x62, 0x10, 0x3e, 0xcb, 0x05, 0xb1, 0xba, 0x89, 0x78, 0x6e, 0xbe,
  0x6a, 0x14, 0x6c, 0x3e, 0xe6, 0x95, 0x0d, 0xbe, 0x7d, 0x7b, 0xa4, 0x3e,
  0x26, 0xf8, 0x3e, 0x3d, 0x86, 0x86, 0x65, 0xbe, 0x46, 0x2d, 0x56, 0xbd,
  0x4d, 0xf1, 0x60, 0xbe, 0x54, 0xd7, 0xb0, 0xbe, 0x75, 0x95, 0x18, 0x3d,
  0x08, 0x26, 0xed, 0xbd, 0x60, 0x4a, 0x6d, 0xbd, 0x0a, 0x65, 0xeb, 0x3d,
  0xab, 0xaa, 0x61, 0x3e, 0xaa, 0x57, 0xc2, 0xbd, 0x7a, 0xb2, 0x2e, 0xbd,
  0x68, 0x12, 0x17, 0xbe, 0xd8, 0x83, 0x95, 0xbe, 0xf1, 0xbc, 0x2f, 0x3d,
  0x05, 0xac, 0x89, 0xbe, 0xf2, 0xfd, 0x9e, 0xbe, 0x35, 0xfd, 0x27, 0xbe,
  0xc9, 0x48, 0xca, 0xbd, 0x03, 0x38, 0x6a, 0x3e, 0x87, 0x35, 0x19, 0x3e,
  0x55, 0x42, 0xb4, 0xbb, 0x2e, 0xf3, 0x43, 0x3d, 0xc6, 0x1e, 0x91, 0xbc,
  0xd1, 0x2c, 0x48, 0x3e, 0x96, 0x98, 0x00, 0x3e, 0xd2, 0xfd, 0x60, 0xbd,
  0xd4, 0x55, 0x91, 0xbd, 0x5f, 0xaf, 0x89, 0xbe, 0x3f, 0x5d, 0xea, 0x3d,
  0xc7, 0x5f, 0x9c, 0x3d, 0xf9, 0xb3, 0x69, 0x3e, 0xe9, 0x51, 0x2d, 0xbc,
  0xcf, 0xdf, 0xae, 0xbe, 0x39, 0xc1, 0x82, 0xbd, 0xae, 0x33, 0xca, 0xbd,
  0xd3, 0x55, 0x58, 0xbd, 0xea, 0x30, 0xbe, 0xbd, 0x1d, 0x49, 0x27, 0x3e,
  0xd3, 0xf8, 0xd3, 0xbd, 0xba, 0x0a, 0xc2, 0xbd, 0xc0, 0xa3, 0x99, 0x3d,
  0xf9, 0xb0, 0x6d, 0x3c, 0xff, 0x67, 0x09, 0xbe, 0x21, 0x74, 0x87, 0x3e,
  0x3c, 0xc8, 0x81, 0xbb, 0x07, 0xd9, 0x38, 0xbc, 0x38, 0x78, 0x01, 0x3c,
  0x8f, 0x20, 0x9c, 0xbe, 0xf8, 0xb5, 0xba, 0x3d, 0x1a, 0x04, 0x2f, 0xbe,
  0xda, 0x6e, 0x7b, 0xbe, 0xf6, 0x54, 0xc6, 0xbc, 0xe2, 0xda, 0xa2, 0x3d,
  0x9c, 0x8f, 0x22, 0xbe, 0x98, 0xd8, 0xd9, 0xbc, 0x11, 0xbb, 0x49, 0xbe,
  0xce, 0x7d, 0xd9, 0x3c, 0x94, 0x6b, 0xec, 0xbe, 0x93, 0xb9, 0x47, 0xbe,
  0x32, 0x7b, 0xfe, 0x3d, 0x54, 0x52, 0x2c, 0xbe, 0xf6, 0x0f, 0xcc, 0xbd,
  0x19, 0x51, 0xc2, 0xbd, 0xc8, 0xbf, 0xf8, 0xbe, 0x2b, 0x3d, 0x0f, 0xbd,
  0xaa, 0x32, 0xa3, 0xbe, 0x39, 0xe6, 0x85, 0x3c, 0x6e, 0x34, 0x63, 0xbd,
  0xcf, 0x4d, 0xf1, 0xbd, 0xa0, 0xd2, 0xf2, 0xbe, 0x65, 0x73, 0xcf, 0xbc,
  0x08, 0x00, 0x20, 0xbe, 0x24, 0x0b, 0x2f, 0xbe, 0x4f, 0xa2, 0x7f, 0xbd,
  0x3e, 0x4a, 0x1f, 0xbe, 0x4b, 0x86, 0xff, 0xbd, 0x67, 0xd6, 0xda, 0xbd,
  0xed, 0x3c, 0xed, 0xbd, 0x70, 0x53, 0x11, 0xbe, 0x58, 0x54, 0x29, 0xbe,
  0x40, 0x1a, 0x4b, 0x3d, 0x9a, 0x93, 0x93, 0xbc, 0x00, 0x57, 0x92, 0xbd,
  0xf7, 0x8c, 0x76, 0xbd, 0x56, 0x16, 0x73, 0x3e, 0x89, 0x2b, 0xaf, 0xbd,
  0x23, 0xbd, 0x88, 0xbe, 0xe8, 0xac, 0x5e, 0x3c, 0x8c, 0x66, 0x54, 0x3c,
  0x21, 0xeb, 0x8b, 0xbc, 0x01, 0x99, 0x83, 0xbd, 0xae, 0xf6, 0xe1, 0x3d,
  0xff, 0x23, 0x30, 0xbe, 0x6e, 0xe2, 0x0e, 0xbe, 0x89, 0x60, 0x30, 0x3e,
  0xf4, 0x8b, 0x4e, 0xbd, 0xbe, 0x8d, 0xd8, 0x3d, 0x2c, 0xf5, 0x80, 0xbe,
  0xed, 0x9e, 0x07, 0x3e, 0x0d, 0x38, 0x30, 0x3e, 0x29, 0x84, 0x5e, 0xbe,
  0x87, 0x60, 0xbb, 0x3d, 0x30, 0xea, 0xab, 0xbe, 0x5f, 0x63, 0xb1, 0x3e,
  0xd2, 0x9d, 0x3e, 0xbe, 0xf1, 0x90, 0xe4, 0xbc, 0xbe, 0xe8, 0xe7, 0xbd,
  0x1f, 0x8d, 0xee, 0xbd, 0x83, 0x38, 0x98, 0xbb, 0x93, 0xf2, 0xfe, 0xbd,
  0x78, 0x13, 0x8d, 0x3e, 0x97, 0x2c, 0xfd, 0x3d, 0x53, 0x59, 0xca, 0x3d,
  0xec, 0x63, 0x78, 0xbc, 0x2c, 0xee, 0x8e, 0xbe, 0x9a, 0xda, 0x99, 0xbd,
  0x99, 0xcc, 0xb5, 0xbd, 0x9e, 0x01, 0x2c, 0xbe, 0x90, 0x62, 0xc3, 0x3d,
  0xe8, 0x10, 0xe4, 0x3c, 0x8a, 0x46, 0xf6, 0xba, 0xdf, 0x54, 0x6f, 0xbe,
  0xbd, 0x45, 0xb1, 0xbd, 0xd3, 0x09, 0x45, 0x3d, 0x27, 0x8c, 0x7d, 0xbe,
  0xba, 0xc1, 0x32, 0xbe, 0xd9, 0xe3, 0xe8, 0xbd, 0x53, 0x1e, 0x92, 0xbe,
  0xc1, 0x22, 0xc5, 0xbd, 0x74, 0x40, 0xf9, 0xbc, 0xaa, 0x20, 0x52, 0xbe,
  0x40, 0xcc, 0x49, 0xbc, 0x71, 0xb0, 0x3b, 0x3b, 0x81, 0xde, 0x48, 0xbd,
  0x7b, 0x8d, 0x8d, 0xbe, 0xc7, 0xad, 0x54, 0x3d, 0x61, 0xa5, 0x7a, 0xbd,
  0x76, 0xd6, 0xf7, 0xbd, 0x8d, 0x40, 0x90, 0xbd, 0x72, 0x1f, 0xa1, 0x3d,
  0x0d, 0x92, 0x3f, 0x3e, 0xe7, 0xe8, 0xab, 0x3d, 0x93, 0x1e, 0x47, 0xbe,
  0xc4, 0xd4, 0x4c, 0xbe, 0x44, 0x41, 0x25, 0x3e, 0x2d, 0x2e, 0x9a, 0xbd,
  0xed, 0xf8, 0x54, 0xbd, 0x9d, 0xab, 0xb1, 0xbd, 0x8e, 0xaa, 0x97, 0xbc,
  0x1f, 0x66, 0xb4, 0xbc, 0x85, 0x8b, 0xb9, 0xbd, 0x08, 0x4e, 0x6b, 0xbd,
  0x7f, 0x2f, 0xb9, 0x3d, 0xd2, 0x23, 0x03, 0x3e, 0xf9, 0xd0, 0x30, 0xbe,
  0xa6, 0xd4, 0x6f, 0xbe, 0x9b, 0x89, 0x0d, 0x3e, 0x95, 0x9f, 0xab, 0x3d,
  0x9f, 0x42, 0x5a, 0x3d, 0x29, 0xa3, 0xcf, 0xbd, 0xd9, 0x5c, 0x45, 0x3e,
  0xc6, 0xe2, 0x21, 0xbe, 0x08, 0x08, 0x5a, 0xbd, 0xcd, 0x44, 0x57, 0x3e,
  0x43, 0xda, 0x39, 0x3e, 0xa2, 0x0b, 0x27, 0xbd, 0xfa, 0xbc, 0x19, 0x3d,
  0xe4, 0xd1, 0xf9, 0xbc, 0x52, 0x9b, 0xf1, 0xbd, 0xe4, 0x0d, 0x6a, 0xbe,
  0x55, 0x96, 0xb3, 0xbe, 0x56, 0x67, 0xe9, 0x3d, 0x26, 0x58, 0xd2, 0x3c,
  0x02, 0x71, 0x24, 0x3e, 0x19, 0xac, 0x1b, 0x3e, 0xba, 0x60, 0x92, 0xbd,
  0x13, 0x4d, 0x28, 0x3d, 0xfe, 0x4d, 0x95, 0xbd, 0x20, 0xb7, 0x86, 0xbe,
  0xb5, 0x7f, 0xef, 0xbd, 0x1a, 0x55, 0x1d, 0x3d, 0xec, 0xe8, 0x40, 0x3e,
  0x26, 0x3f, 0xd1, 0x3d, 0xe4, 0x44, 0x2d, 0xbe, 0x26, 0xe8, 0xa3, 0xbd,
  0x23, 0x0c, 0x07, 0xbe, 0xa1, 0x62, 0x73, 0xbe, 0x93, 0x58, 0x63, 0xbe,
  0x03, 0xcb, 0xb3, 0xbd, 0xbd, 0xba, 0x49, 0x3c, 0x72, 0xa9, 0x3c, 0x3d,
  0x76, 0xb1, 0xf0, 0xbd, 0x88, 0x47, 0x74, 0xbe, 0x97, 0xb4, 0x0d, 0x3d,
  0xa5, 0x9e, 0x80, 0xbe, 0x8f, 0xcf, 0x95, 0xbd, 0xda, 0xee, 0xa2, 0x3d,
  0xf1, 0xb2, 0x0e, 0xbe, 0x27, 0xe2, 0xd7, 0xbd, 0x19, 0xce, 0xd6, 0xbd,
  0x26, 0x36, 0x74, 0x3d, 0xff, 0x5a, 0xdc, 0x3c, 0x45, 0x03, 0xc2, 0xbe,
  0x36, 0x65, 0x24, 0x3d, 0x92, 0x2d, 0x72, 0x3d, 0x8d, 0xcf, 0xa5, 0xbc,
  0xe0, 0xdd, 0x07, 0x3d, 0x6f, 0xeb, 0x66, 0xbd, 0xce, 0x35, 0xdd, 0xbc,
  0x93, 0x73, 0x0d, 0xbe, 0x87, 0xd0, 0x88, 0xbe, 0x54, 0x14, 0x0e, 0x3d,
  0xf4, 0x6f, 0xb0, 0x3d, 0xfa, 0xee, 0x89, 0x3c, 0x54, 0xfb, 0x1c, 0xbe,
  0x52, 0x0f, 0x85, 0x3d, 0x6e, 0xe3, 0x55, 0xbe, 0xaf, 0x70, 0x53, 0xbe,
  0xfd, 0xaf, 0xcf, 0x3c, 0xec, 0xb3, 0x6c, 0x3d, 0x48, 0x8a, 0x32, 0x3d,
  0xf2, 0x94, 0x07, 0xbe, 0x23, 0xa8, 0x04, 0xbe, 0xf6, 0x6e, 0xe0, 0xbc,
  0xd9, 0xea, 0xaf, 0xbd, 0xeb, 0x3e, 0xa1, 0xbd, 0x8c, 0xa1, 0x5e, 0xbe,
  0x81, 0x5f, 0xbe, 0xbc, 0x74, 0x10, 0xe3, 0xbd, 0x8a, 0x69, 0x14, 0x3d,
  0x41, 0xbc, 0xd9, 0xbd, 0x02, 0x73, 0xb5, 0xbd, 0xa2, 0xc1, 0xe2, 0xbd,
  0x67, 0x27, 0xef, 0xbd, 0x56, 0xa2, 0xd5, 0xbe, 0x8d, 0x20, 0x2f, 0xbe,
  0x8c, 0xcc, 0x1b, 0xbb, 0x84, 0xb7, 0x9d, 0x3d, 0x3b, 0xd4, 0x19, 0x3e,
  0x19, 0x9b, 0x47, 0xbe, 0xe5, 0x38, 0xe0, 0x3d, 0xe6, 0x41, 0x8c, 0xbe,
  0x7e, 0x26, 0xe4, 0xbb, 0x23, 0xff, 0x39, 0xbe, 0x88, 0x1e, 0x74, 0xbe,
  0xa3, 0xf4, 0xd2, 0xbe, 0xd4, 0x2d, 0xd3, 0xbe, 0x84, 0xda, 0xb9, 0x3c,
  0x7f, 0x37, 0x92, 0xbe, 0x73, 0xc7, 0x30, 0x3d, 0xf3, 0x02, 0x4a, 0x3d,
  0x70, 0xae, 0x83, 0x3c, 0xf5, 0x29, 0xf0, 0x3c, 0xf9, 0x5b, 0x5a, 0x3e,
  0xc2, 0xca, 0x61, 0xbe, 0x5b, 0xeb, 0x56, 0x3d, 0xfc, 0xa6, 0x64, 0xbe,
  0x04, 0xd7, 0xbf, 0xbe, 0x0f, 0x7a, 0x38, 0x3d, 0xff, 0x0a, 0x2e, 0xbd,
  0x39, 0x01, 0x13, 0xbe, 0xdb, 0x87, 0xba, 0xbe, 0xa3, 0xf1, 0x70, 0xbe,
  0x54, 0x8f, 0x71, 0x3e, 0x48, 0xb2, 0xab, 0xbd, 0x63, 0xa9, 0x27, 0x3e,
  0x17, 0xa0, 0x4b, 0x3d, 0x5e, 0xe1, 0xa8, 0x3c, 0xb5, 0xf1, 0x51, 0x3e,
  0x19, 0xee, 0x80, 0x3e, 0xfb, 0x0b, 0x28, 0xbd, 0x23, 0x21, 0x57, 0xbe,
  0xe4, 0x05, 0x38, 0x3e, 0x38, 0x7a, 0xe0, 0xbd, 0x25, 0x46, 0x50, 0x3d,
  0x0a, 0xc7, 0x25, 0xbd, 0x4e, 0x03, 0x26, 0xbd, 0x89, 0x36, 0x27, 0xbe,
  0x08, 0x75, 0x7f, 0x3d, 0xd5, 0xd3, 0xdb, 0xbc, 0x15, 0x6c, 0xd4, 0xbc,
  0xdd, 0xf9, 0x7f, 0x3d, 0x28, 0x76, 0x8b, 0x3d, 0x0b, 0x88, 0xd0, 0xbd,
  0x3c, 0x69, 0xea, 0x3d, 0x70, 0x01, 0x27, 0x3e, 0x93, 0x5e, 0x3e, 0xbe,
  0x84, 0x21, 0xe1, 0xbd, 0x7d, 0xd2, 0x82, 0x3e, 0xc7, 0x93, 0x68, 0x3c,
  0x54, 0xb1, 0x60, 0x3d, 0xff, 0x8a, 0x64, 0x3d, 0x8d, 0x5b, 0xf1, 0x3d,
  0x43, 0xdf, 0x14, 0xbe, 0x87, 0x4b, 0x5a, 0xbb, 0x4d, 0xc6, 0x90, 0x3e,
  0x55, 0xf4, 0xcb, 0xbd, 0x34, 0xc5, 0xe1, 0x3d, 0x24, 0x13, 0xd6, 0x3b,
  0xc3, 0xe4, 0x48, 0x3d, 0xaf, 0xd0, 0xb0, 0x3d, 0xb7, 0xb2, 0x91, 0x3e,
  0x68, 0x13, 0x95, 0x3d, 0xff, 0xf7, 0x96, 0x3d, 0x9e, 0x19, 0x62, 0x3e,
  0x1e, 0xe7, 0x76, 0xbe, 0x4a, 0x84, 0xe2, 0x3c, 0x34, 0x9f, 0x8d, 0x3d,
  0x61, 0x1d, 0x12, 0xbe, 0xbf, 0xea, 0x03, 0xbe, 0xa7, 0x9c, 0x36, 0x3d,
  0xc5, 0xf8, 0xd9, 0x3d, 0xa7, 0x4c, 0xfd, 0xbc, 0x6a, 0xbe, 0xa7, 0x3d,
  0xec, 0xa9, 0x09, 0x3d, 0x7d, 0x9a, 0x29, 0x3d, 0x44, 0xef, 0x86, 0x3e,
  0xba, 0x03, 0x20, 0x3e, 0xa3, 0x4f, 0xa4, 0xbd, 0xa9, 0xb1, 0x91, 0xbe,
  0x06, 0x5f, 0x87, 0x3e, 0xe2, 0xc4, 0xea, 0xbd, 0xdb, 0xaa, 0x9d, 0x3d,
  0xb1, 0x65, 0x39, 0xbe, 0x71, 0xf1, 0xdc, 0xbe, 0x52, 0xfc, 0x6e, 0xbe,
  0xd9, 0xe8, 0x47, 0x3d, 0x0c, 0xd7, 0x8b, 0x3d, 0x09, 0x0d, 0x52, 0x3e,
  0xe4, 0x50, 0x52, 0x3d, 0x78, 0x2c, 0x22, 0x3c, 0x78, 0x28, 0xae, 0xbe,
  0xcb, 0x46, 0x34, 0x3e, 0x28, 0xac, 0x6c, 0x3d, 0x67, 0x48, 0x9a, 0x3c,
  0xd3, 0xe0, 0xf7, 0xbe, 0x41, 0xa5, 0x0c, 0xbe, 0xc5, 0x18, 0xb8, 0xbd,
  0x36, 0xc3, 0xd4, 0x3c, 0xcc, 0xef, 0x24, 0x3d, 0xa5, 0x10, 0x75, 0xbb,
  0x08, 0x0b, 0x4a, 0x3c, 0xa8, 0x95, 0x85, 0x3c, 0xac, 0xb3, 0x54, 0x3e,
  0x78, 0xf3, 0xbb, 0xbc, 0x24, 0x36, 0x20, 0x3b, 0x7b, 0xce, 0xc7, 0x3c,
  0x97, 0xa4, 0x15, 0xbe, 0x62, 0xfd, 0x17, 0xbd, 0x3c, 0x2a, 0xaf, 0x3d,
  0x88, 0x04, 0xa8, 0x3c, 0x68, 0xc5, 0x97, 0xbd, 0x52, 0x70, 0x42, 0xbe,
  0x90, 0x80, 0x03, 0x3e, 0xe1, 0xdf, 0x71, 0xbe, 0xb6, 0xec, 0x85, 0xbe,
  0xc2, 0xdb, 0xf9, 0x3d, 0x0a, 0x60, 0x0e, 0x3e, 0x53, 0x24, 0xc6, 0x3e,
  0x23, 0xa7, 0x9e, 0xbe, 0x3a, 0xdc, 0x5a, 0x3f, 0xe5, 0xde, 0xa4, 0xbe,
  0x18, 0x3c, 0x95, 0xbe, 0xfa, 0xa5, 0x9c, 0xbc, 0x20, 0xdc, 0x91, 0xbe,
  0xb5, 0xad, 0xc3, 0xbd, 0x33, 0xa4, 0xc6, 0xbe, 0xcb, 0x06, 0x9c, 0xbe,
  0xbe, 0x97, 0xa0, 0x3c, 0x61, 0x9e, 0x1d, 0x3e, 0x15, 0x97, 0x49, 0xbe,
  0x78, 0xbf, 0x65, 0x3e, 0x93, 0x7f, 0x27, 0xbe, 0x1d, 0x0b, 0x34, 0x3e,
  0xd6, 0xcb, 0xa9, 0x3e, 0x9d, 0x65, 0x87, 0x3e, 0xe1, 0x87, 0x05, 0x3f,
  0xa8, 0x51, 0x02, 0xbe, 0x45, 0x61, 0x19, 0xbe, 0x3e, 0x2b, 0x0e, 0xbe,
  0xd3, 0xec, 0x25, 0xbd, 0x2d, 0xc1, 0x2e, 0xbc, 0xf8, 0x50, 0x2b, 0x3e,
  0x93, 0x0a, 0x8e, 0x3e, 0x30, 0x60, 0x34, 0x3e, 0xb2, 0x29, 0xce, 0x3d,
  0x2d, 0x74, 0x1c, 0xbd, 0xa3, 0xac, 0xd5, 0x3e, 0xb9, 0x39, 0x1c, 0x3d,
  0x79, 0xc7, 0x4a, 0x3e, 0x6b, 0x2f, 0x54, 0x3e, 0x9c, 0x9f, 0x23, 0x3b,
  0xb6, 0x90, 0x73, 0x3f, 0xec, 0xb5, 0x50, 0xbe, 0x66, 0xf3, 0x8c, 0xbe,
  0xf4, 0xd4, 0x5a, 0xbd, 0xf7, 0x45, 0xbc, 0xbe, 0x73, 0x3d, 0xde, 0xbd,
  0xb5, 0xc7, 0x3b, 0x3d, 0x5d, 0x53, 0xa4, 0x3d, 0x1e, 0x02, 0x6a, 0xbd,
  0x3f, 0x66, 0x8f, 0x3c, 0x17, 0x70, 0x5a, 0xbe, 0xe6, 0x31, 0x9c, 0x3d,
  0x27, 0xb9, 0xb9, 0x3e, 0xba, 0x20, 0x9b, 0x3e, 0x7f, 0x09, 0x6e, 0x3e,
  0xdf, 0xc3, 0x3a, 0x3e, 0x5b, 0xd9, 0xe5, 0x3f, 0xa6, 0x77, 0xd0, 0xbd,
  0x59, 0xbc, 0x3a, 0xbe, 0xf2, 0xbd, 0x38, 0x3e, 0xee, 0xb0, 0x1f, 0x3e,
  0x37, 0x5b, 0x56, 0x3c, 0x93, 0x0f, 0xf7, 0x3d, 0x89, 0xcf, 0x84, 0x3e,
  0xe4, 0xce, 0x9f, 0x3e, 0xc9, 0x74, 0x0a, 0x3e, 0xe7, 0x32, 0x4e, 0xbe,
  0xfc, 0x33, 0x6e, 0xbd, 0x31, 0x58, 0xa2, 0x3e, 0x00, 0x26, 0xb0, 0x3e,
  0xab, 0x68, 0x76, 0x3e, 0x9d, 0x87, 0x78, 0xbe, 0x27, 0x05, 0x33, 0x3f,
  0xfc, 0xff, 0x5a, 0x3d, 0xc8, 0xae, 0x9a, 0xbd, 0xcf, 0xbc, 0x97, 0xbd,
  0x7a, 0x78, 0x68, 0xbd, 0x03, 0x5d, 0x0b, 0x3e, 0xca, 0xa5, 0xc2, 0xbc,
  0x68, 0x36, 0x42, 0xbd, 0x74, 0xb9, 0x88, 0x3e, 0x2c, 0x61, 0x26, 0x3e,
  0x3f, 0x0e, 0xe9, 0xbd, 0xc4, 0x87, 0xfe, 0x3a, 0x17, 0xe8, 0xd0, 0xbd,
  0xd9, 0xcf, 0xcb, 0x3e, 0xb4, 0x2e, 0x9e, 0x3d, 0xb9, 0xf7, 0x79, 0x3e,
  0x62, 0xc9, 0x68, 0x3f, 0xe9, 0xe0, 0x39, 0xbe, 0xb9, 0xd4, 0x3a, 0xbe,
  0x01, 0x53, 0x23, 0xbe, 0x04, 0x2f, 0x25, 0xbe, 0x5e, 0x80, 0xf6, 0x3c,
  0xf7, 0x75, 0x90, 0x3d, 0xea, 0xad, 0x13, 0x3e, 0x54, 0x56, 0x2a, 0x3e,
  0xe9, 0x69, 0x1d, 0xbd, 0x58, 0x4b, 0x54, 0xbc, 0xe6, 0x9f, 0x27, 0xbe,
  0x9b, 0xea, 0x60, 0xbc, 0xe7, 0x14, 0x2d, 0xbe, 0x33, 0x89, 0x15, 0xbe,
  0xca, 0xa2, 0x1c, 0xbe, 0x42, 0x1b, 0x51, 0xbe, 0x5c, 0x48, 0x66, 0xbe,
  0xfc, 0xd7, 0x46, 0xbd, 0x26, 0x0c, 0xd5, 0x3d, 0x35, 0xee, 0x42, 0xbe,
  0x2e, 0xae, 0xf8, 0xbd, 0xc4, 0x76, 0x5d, 0xbe, 0xcc, 0x72, 0xf4, 0x3d,
  0x6a, 0x4d, 0x0a, 0x3d, 0xe3, 0x5f, 0x1d, 0xbd, 0x13, 0x68, 0xf8, 0xbc,
  0xe4, 0x30, 0x7b, 0xbd, 0x0b, 0x28, 0xac, 0x3b, 0x4e, 0x31, 0x19, 0x3b,
  0xc0, 0xc1, 0xfa, 0x3d, 0xdf, 0x0a, 0xdc, 0x3c, 0x90, 0xbb, 0x31, 0xbd,
  0x70, 0x7c, 0x91, 0xbb, 0xe7, 0x15, 0x10, 0xbe, 0x36, 0x12, 0x4f, 0xbe,
  0x5b, 0xe5, 0xad, 0x3c, 0xfa, 0x92, 0x93, 0x3c, 0x18, 0x12, 0x5f, 0xbe,
  0xd7, 0xa8, 0xc2, 0xbd, 0xb7, 0x98, 0x03, 0x3e, 0xff, 0x2d, 0x82, 0x3c,
  0x95, 0xf8, 0xd6, 0xbb, 0x8b, 0x23, 0x59, 0xbd, 0xc3, 0x7b, 0x12, 0xbe,
  0xaa, 0x2b, 0x20, 0xbc, 0x21, 0xfd, 0x7b, 0xbd, 0x4e, 0x90, 0x6d, 0xbe,
  0x8e, 0x18, 0x0a, 0x3e, 0xdd, 0x2e, 0x1a, 0x3e, 0x30, 0x52, 0x3b, 0xbd,
  0xfb, 0x1b, 0x88, 0xbe, 0x25, 0x39, 0xb9, 0x3d, 0x8a, 0x93, 0x58, 0xbd,
  0xe3, 0xa3, 0x62, 0xbc, 0xec, 0xa1, 0xc3, 0x3d, 0xb2, 0x5e, 0x8f, 0xbe,
  0x37, 0x4c, 0x25, 0x3e, 0xf0, 0xec, 0x2c, 0xbd, 0xd7, 0x54, 0x87, 0xbb,
  0xc4, 0xbe, 0xa1, 0xbb, 0xb1, 0x32, 0x46, 0x3e, 0x92, 0x8d, 0x6a, 0x3e,
  0xea, 0xf9, 0x07, 0x3d, 0x7b, 0x78, 0x2e, 0x3e, 0xf0, 0xdf, 0x84, 0x3e,
  0x10, 0x70, 0x12, 0xbe, 0xd3, 0xdd, 0x32, 0xbc, 0x1e, 0x92, 0x1f, 0x3f,
  0xe1, 0xc2, 0x38, 0xbe, 0xaf, 0x5c, 0x0f, 0x3e, 0x42, 0xbb, 0xb7, 0x3d,
  0x02, 0xc1, 0x9f, 0xbd, 0x70, 0x13, 0x45, 0x3e, 0x6c, 0xa2, 0xb0, 0x3e,
  0x9c, 0x15, 0x6d, 0xbc, 0xb2, 0x65, 0x67, 0xbe, 0xba, 0xee, 0x85, 0x3e,
  0x8e, 0x55, 0x33, 0x3e, 0xf5, 0x1f, 0x52, 0x3d, 0x1e, 0x0d, 0x8f, 0x3c,
  0xf0, 0x2e, 0x88, 0x3d, 0x55, 0xac, 0x71, 0xbe, 0x6b, 0x3a, 0x3c, 0xbe,
  0xe3, 0xf6, 0xc0, 0x3e, 0xec, 0x07, 0x85, 0x3d, 0x3e, 0xe1, 0x1d, 0x3d,
  0xbf, 0x04, 0x63, 0x3e, 0x97, 0x07, 0xde, 0x3d, 0x1a, 0xa6, 0xde, 0x3a,
  0xa0, 0x41, 0x8a, 0x3d, 0x74, 0x22, 0x05, 0xbe, 0xe1, 0xb3, 0x0f, 0x3d,
  0xcb, 0x83, 0x84, 0xbd, 0xd4, 0xa8, 0xfa, 0x3d, 0x25, 0x29, 0x57, 0xbd,
  0x98, 0xe9, 0xc7, 0xbd, 0x16, 0xec, 0x24, 0x3d, 0x3c, 0xc6, 0xa4, 0xbe,
  0x77, 0x68, 0xf7, 0xbd, 0xd6, 0x00, 0x9b, 0x3d, 0xbf, 0xa6, 0xf4, 0xbd,
  0x6b, 0xcf, 0xbc, 0xbd, 0x18, 0xd2, 0x37, 0x3a, 0xf5, 0x6f, 0x14, 0xbe,
  0x1c, 0xea, 0x81, 0xbd, 0x30, 0x33, 0x12, 0x3e, 0xe1, 0x3f, 0x36, 0xbd,
  0x25, 0x33, 0x8a, 0xbe, 0xbf, 0xe1, 0x7e, 0xbc, 0x4b, 0xd2, 0x70, 0x3e,
  0xba, 0x2f, 0x10, 0xbe, 0xa7, 0x2c, 0xcf, 0xbc, 0x11, 0x7e, 0xb8, 0xbd,
  0x66, 0xb6, 0x8a, 0xbe, 0x80, 0x75, 0x0f, 0xbe, 0x95, 0xa2, 0x12, 0x3e,
  0x01, 0x9e, 0xd9, 0x3a, 0xea, 0x4c, 0xc6, 0xbb, 0x35, 0x3e, 0x4c, 0xbe,
  0xa5, 0x45, 0x5e, 0xbc, 0x65, 0xdc, 0x45, 0x3d, 0x01, 0xb7, 0x79, 0x3d,
  0x7f, 0xd8, 0x15, 0x3d, 0x6f, 0xc7, 0x72, 0xbe, 0x96, 0xb2, 0xa1, 0xbe,
  0xac, 0x57, 0xa2, 0xbe, 0x4c, 0x50, 0xd8, 0xbc, 0xe0, 0x03, 0x84, 0xbe,
  0xb6, 0xf3, 0x33, 0xbe, 0xac, 0x06, 0xad, 0xbe, 0x41, 0xef, 0xc6, 0xbd,
  0xab, 0xff, 0x31, 0x3e, 0x6a, 0xb1, 0xdd, 0x3d, 0x39, 0x84, 0x9d, 0xbd,
  0xf4, 0xe1, 0x7c, 0xbd, 0x89, 0xaa, 0x1f, 0x3e, 0xce, 0xc8, 0xda, 0xbe,
  0x0a, 0xeb, 0x18, 0xbd, 0x17, 0xa7, 0x78, 0xbe, 0x5e, 0xf1, 0x49, 0xbe,
  0x15, 0x5a, 0x3d, 0xbf, 0x7c, 0x5e, 0x9a, 0xbe, 0x25, 0x5a, 0xa8, 0xbe,
  0x7d, 0xaf, 0x31, 0xbf, 0x03, 0x13, 0x87, 0xbd, 0x71, 0x4b, 0x65, 0x3d,
  0xc1, 0x72, 0x34, 0x3e, 0x20, 0x81, 0x08, 0x3d, 0xaa, 0x77, 0x36, 0x3e,
  0x0b, 0x1f, 0xde, 0xbe, 0xf1, 0xd7, 0xb4, 0xbc, 0x15, 0xbe, 0x00, 0xbd,
  0xff, 0x45, 0x7a, 0xbe, 0x06, 0xc3, 0x22, 0x3e, 0xc1, 0x8e, 0x3b, 0xbe,
  0x5f, 0x6b, 0x04, 0xbe, 0xd1, 0x91, 0xe1, 0xbe, 0xcd, 0x65, 0x7e, 0xbe,
  0xd1, 0x67, 0x0e, 0x3d, 0x72, 0x67, 0x11, 0xb9, 0xb5, 0x5b, 0x8c, 0x3e,
  0x92, 0xb4, 0xc2, 0x3d, 0xb4, 0x2c, 0x79, 0x3d, 0x42, 0xb2, 0x54, 0x3e,
  0xd9, 0xc8, 0x4e, 0x3e, 0xb2, 0xd3, 0xe2, 0x3d, 0xcd, 0xa0, 0xed, 0xbd,
  0xe8, 0xfe, 0x9e, 0x3e, 0x87, 0x46, 0x2e, 0xbd, 0x0a, 0xb5, 0xdd, 0x3d,
  0xfe, 0xc0, 0x22, 0x3e, 0x0f, 0xa5, 0x26, 0x3e, 0x6b, 0x5c, 0xf5, 0xbc,
  0xff, 0xe7, 0x8e, 0xbd, 0x7a, 0x47, 0xc9, 0x3d, 0xd1, 0xe5, 0x93, 0xbe,
  0xcc, 0xf4, 0x16, 0x3e, 0x2d, 0x0d, 0xc9, 0x3d, 0x0d, 0x67, 0x3e, 0xbb,
  0xec, 0xab, 0xed, 0x3d, 0xcd, 0x56, 0xa0, 0x3e, 0xd7, 0x6d, 0x10, 0x3c,
  0x2c, 0x15, 0x77, 0xbe, 0x56, 0x2e, 0x1a, 0x3e, 0x3d, 0x6d, 0xf2, 0xbd,
  0x27, 0x99, 0x0e, 0x3e, 0x5e, 0xe1, 0x9a, 0xbe, 0xe3, 0xf1, 0x69, 0xbd,
  0x8a, 0xaa, 0xbd, 0xbb, 0x76, 0x33, 0x25, 0x3d, 0x15, 0x6a, 0x67, 0x3c,
  0x21, 0xa8, 0x15, 0xbe, 0x57, 0xea, 0x2e, 0x3e, 0x08, 0x4a, 0xa8, 0x3c,
  0xf0, 0xe3, 0x80, 0x3d, 0x2c, 0x2f, 0x3f, 0x3e, 0xaa, 0xc9, 0x9c, 0xbd,
  0x85, 0xc7, 0x7a, 0x3e, 0xf1, 0xe4, 0xbe, 0xbd, 0x1e, 0x54, 0xab, 0x3d,
  0x7e, 0x62, 0x0b, 0x3d, 0x5e, 0x0f, 0x1e, 0x3e, 0x00, 0x1b, 0x38, 0xbd,
  0xfa, 0x36, 0x4b, 0xbc, 0xc4, 0x53, 0x57, 0x3d, 0x9c, 0x3e, 0x47, 0x3d,
  0x4b, 0x64, 0x62, 0xbe, 0x71, 0xd4, 0x08, 0xbe, 0xb6, 0x8b, 0x8f, 0x3d,
  0x61, 0xed, 0x6e, 0x3d, 0x31, 0x2b, 0xa3, 0x3d, 0xe6, 0xc6, 0xdd, 0x3d,
  0x77, 0x88, 0x1a, 0xbc, 0x56, 0xe4, 0x77, 0xbb, 0x4b, 0x8e, 0x80, 0xbe,
  0x14, 0xa9, 0x7d, 0x3e, 0x20, 0x23, 0xae, 0xbd, 0x8c, 0xdb, 0x43, 0x3c,
  0x98, 0xb3, 0x14, 0xbf, 0xe9, 0xa6, 0x53, 0xbe, 0xce, 0x87, 0xde, 0xbd,
  0x48, 0xe6, 0x8e, 0xbd, 0x63, 0x8c, 0x93, 0xbe, 0x73, 0x72, 0xcc, 0xbd,
  0xc1, 0xf2, 0xe2, 0x3d, 0x0c, 0xf6, 0x2b, 0x3d, 0x1a, 0x62, 0x9b, 0xbe,
  0x46, 0x03, 0xfd, 0x3d, 0x62, 0x26, 0xea, 0x3e, 0x69, 0xa8, 0xb6, 0xbd,
  0x25, 0x17, 0x54, 0xbf, 0x0d, 0x84, 0xa4, 0xbd, 0x0b, 0x98, 0xec, 0xbd,
  0x8a, 0x1b, 0x01, 0xbc, 0xdd, 0xc6, 0xf6, 0xbd, 0x92, 0x76, 0x01, 0x3d,
  0xab, 0x57, 0xd1, 0xbc, 0xe2, 0xd1, 0x36, 0x3d, 0x2f, 0x8f, 0x9b, 0x3c,
  0x5e, 0x0f, 0x84, 0xbd, 0x0b, 0x92, 0xc6, 0xbd, 0xc3, 0x16, 0x4b, 0x3c,
  0x1b, 0xea, 0x50, 0xbe, 0x98, 0x1f, 0xcf, 0xbb, 0x8e, 0xb0, 0x8c, 0x3e,
  0xdb, 0x9e, 0x27, 0xbc, 0x1a, 0x63, 0xdd, 0xbd, 0x91, 0x29, 0x01, 0xbd,
  0x4d, 0x88, 0x55, 0x3e, 0xc2, 0x39, 0x9f, 0xbe, 0x91, 0x17, 0xab, 0xbd,
  0x3c, 0x76, 0x3f, 0x3e, 0x6b, 0xd3, 0x84, 0x3e, 0xe8, 0x6a, 0x7a, 0x3e,
  0x8f, 0x5b, 0x9c, 0xbe, 0x93, 0xad, 0xb4, 0x3e, 0x2f, 0xe8, 0xb9, 0xbe,
  0x47, 0x89, 0x03, 0xbe, 0xdd, 0x35, 0x37, 0xbd, 0x2d, 0x7b, 0x4e, 0xbe,
  0x70, 0x57, 0x5c, 0xbe, 0x5d, 0xd9, 0x40, 0xbe, 0xbe, 0xd7, 0xe5, 0x3b,
  0x61, 0x5c, 0x2d, 0x3e, 0x69, 0x8a, 0x8e, 0x3e, 0x48, 0x8e, 0x49, 0xbe,
  0x50, 0x91, 0x93, 0x3e, 0xbf, 0xc3, 0x4f, 0x3e, 0x4f, 0xf1, 0x33, 0x3e,
  0x35, 0xf8, 0x83, 0x3e, 0x26, 0xd0, 0x0f, 0x3e, 0xa9, 0x23, 0xcb, 0x3e,
  0xd6, 0x5d, 0x29, 0xbe, 0x23, 0x70, 0x15, 0xbe, 0x30, 0x7f, 0x11, 0xbc,
  0xad, 0xc5, 0xaf, 0xbe, 0x96, 0x76, 0x19, 0xbe, 0x32, 0xa9, 0x03, 0x3e,
  0x22, 0x32, 0x4a, 0x3e, 0x81, 0xfd, 0xc6, 0xbd, 0x77, 0x03, 0xac, 0xbd,
  0x61, 0x5c, 0x0f, 0xbe, 0x05, 0xa3, 0xdd, 0x3e, 0x92, 0x18, 0x16, 0x3e,
  0x6b, 0xfb, 0x86, 0x3e, 0x80, 0xbc, 0xbb, 0x3d, 0x56, 0x0e, 0x92, 0x3e,
  0xf8, 0x22, 0x74, 0x3f, 0x0a, 0xe6, 0xfb, 0xbc, 0xad, 0xb4, 0x92, 0xbd,
  0x07, 0xd5, 0xd6, 0x3d, 0xcc, 0x3b, 0x4e, 0xbe, 0xd6, 0x82, 0x67, 0xbe,
  0xcb, 0x69, 0xa9, 0x3e, 0xec, 0x62, 0xc3, 0x3e, 0x2f, 0x64, 0x51, 0xbd,
  0x20, 0xb2, 0x98, 0xbc, 0x3e, 0x9b, 0x62, 0xbe, 0xad, 0x3a, 0x0a, 0x3f,
  0xf2, 0x04, 0x72, 0x3e, 0x68, 0x34, 0xeb, 0x3e, 0xdd, 0x37, 0xb0, 0x3e,
  0x9e, 0x6e, 0x46, 0xbe, 0xdb, 0x5f, 0xa1, 0x3f, 0x03, 0x5d, 0x29, 0xbd,
  0x82, 0xd0, 0x3e, 0xbd, 0x33, 0x55, 0xb3, 0x3d, 0x11, 0x1f, 0x26, 0xbe,
  0xbe, 0xeb, 0xb5, 0x3d, 0xac, 0xa9, 0x94, 0x3e, 0x69, 0x7d, 0xaa, 0x3e,
  0x1f, 0x50, 0x9e, 0x3c, 0xaa, 0x60, 0xdc, 0x3e, 0x3a, 0xd4, 0x79, 0xbe,
  0x1c, 0x89, 0x7d, 0x3d, 0x25, 0xb5, 0x88, 0x3e, 0xaa, 0x5a, 0xa7, 0x3e,
  0xb6, 0x14, 0xa9, 0x3e, 0xad, 0x14, 0x67, 0xbe, 0xcd, 0x3f, 0x78, 0x3f,
  0x0d, 0x94, 0xb9, 0xbd, 0xd0, 0x91, 0xae, 0xbd, 0x44, 0x6c, 0x11, 0x3d,
  0x3f, 0x63, 0xf0, 0xbd, 0x5f, 0x09, 0xb2, 0xbd, 0xce, 0x82, 0x91, 0xbe,
  0xb6, 0x17, 0x6e, 0x3e, 0x8e, 0x09, 0x96, 0x3d, 0xcb, 0x6c, 0x57, 0x3e,
  0x89, 0x0b, 0x3e, 0xbe, 0x85, 0xeb, 0xcf, 0x3d, 0x96, 0xff, 0x3a, 0x3e,
  0xde, 0x3f, 0xba, 0x3e, 0x46, 0x4c, 0x54, 0x3e, 0x8e, 0x7e, 0x2f, 0xbe,
  0x34, 0xb7, 0x23, 0x3f, 0x0e, 0xe8, 0xb5, 0xbe, 0xf0, 0x06, 0x64, 0x3c,
  0x33, 0x2a, 0x1c, 0x3d, 0x77, 0x77, 0x4d, 0xbe, 0x2a, 0x7f, 0xa7, 0x3d,
  0xba, 0x7c, 0xc2, 0xbc, 0x93, 0xa1, 0x7c, 0x3e, 0xdb, 0x66, 0xf8, 0x3e,
  0x7c, 0xec, 0x7b, 0x3e, 0x91, 0x74, 0xa2, 0xbd, 0xd1, 0x0c, 0x25, 0xbe,
  0xff, 0xe3, 0x14, 0xbd, 0x9a, 0xd6, 0x82, 0xbd, 0x12, 0xc4, 0xf2, 0xbd,
  0x4a, 0x5d, 0xc3, 0xbe, 0x8b, 0x77, 0x28, 0xbe, 0xc2, 0x75, 0x62, 0xbe,
  0xd7, 0x45, 0x90, 0xbd, 0x3c, 0xa6, 0xa5, 0x3c, 0x04, 0x38, 0x97, 0xbd,
  0x6f, 0xac, 0x34, 0x3c, 0x9e, 0x44, 0x92, 0x3e, 0x85, 0xc7, 0x11, 0x3d,
  0x01, 0x44, 0x5d, 0x3d, 0x0c, 0x2f, 0xf1, 0xbd, 0xad, 0xa9, 0x13, 0xbe,
  0xa6, 0x46, 0xc1, 0xbd, 0xff, 0x87, 0x76, 0x3d, 0x07, 0x68, 0xb2, 0x3c,
  0x7b, 0xa5, 0x1e, 0xbd, 0xad, 0x99, 0xc8, 0xbb, 0x83, 0x8c, 0x06, 0x3c,
  0xce, 0x87, 0x96, 0x3d, 0x0a, 0xeb, 0x7a, 0xbe, 0xaa, 0x90, 0x80, 0xbe,
  0x0b, 0x04, 0xae, 0xbd, 0xed, 0xa2, 0x3b, 0xbe, 0x5e, 0xb1, 0xe3, 0xbd,
  0x4c, 0x96, 0x3d, 0x3d, 0x2b, 0xed, 0x35, 0xbe, 0xe1, 0xbc, 0x54, 0xbe,
  0x3e, 0x1d, 0x30, 0xbd, 0x52, 0xa0, 0x38, 0xbe, 0xae, 0x0e, 0x15, 0xbe,
  0x69, 0xb4, 0xae, 0xbd, 0x14, 0x09, 0xe9, 0xbd, 0xda, 0x7d, 0xf8, 0x3d,
  0x94, 0xee, 0xa8, 0xbc, 0xa7, 0x9f, 0x3e, 0xbd, 0x82, 0xd8, 0x45, 0xbe,
  0xa7, 0xef, 0xe8, 0x3d, 0x1a, 0x08, 0x74, 0x3c, 0xa1, 0xef, 0x68, 0xbe,
  0x15, 0x4e, 0x04, 0x3e, 0x48, 0xfe, 0x43, 0xbd, 0x4b, 0x55, 0x16, 0xbe,
  0xd2, 0x8a, 0x29, 0x3e, 0x05, 0xec, 0x09, 0xbe, 0x70, 0x8f, 0x67, 0xbe,
  0x23, 0x21, 0x4e, 0xbb, 0x4a, 0x61, 0x1c, 0xbe, 0x56, 0x8a, 0x2d, 0x3e,
  0x10, 0xbb, 0x0c, 0xbe, 0xbe, 0xbe, 0x07, 0x3e, 0x46, 0xe1, 0x68, 0xbe,
  0x73, 0xa3, 0x8b, 0x3c, 0x55, 0xeb, 0x81, 0xbd, 0x48, 0x6b, 0xf0, 0x3d,
  0xbb, 0x45, 0xb6, 0x3d, 0x73, 0x2b, 0x53, 0xbc, 0xdd, 0x1b, 0x4f, 0xbd,
  0x36, 0xeb, 0xa7, 0x3d, 0x0b, 0x65, 0x59, 0xbd, 0x8a, 0xaf, 0x08, 0xbe,
  0xbf, 0x5a, 0xc6, 0x3d, 0xce, 0x2b, 0x48, 0xbe, 0x90, 0xfd, 0xb0, 0x3c,
  0x14, 0xbe, 0x46, 0xbe, 0x6a, 0x8c, 0x9f, 0x3c, 0xa8, 0x44, 0xe4, 0xbd,
  0x26, 0x77, 0x4c, 0x3e, 0x30, 0x68, 0x33, 0xbe, 0x29, 0x1c, 0x16, 0xbe,
  0x7f, 0xc5, 0xfc, 0x3c, 0x68, 0x08, 0x2e, 0x3e, 0x8a, 0x3a, 0x32, 0xbc,
  0x42, 0x46, 0xce, 0x3c, 0x88, 0xa4, 0xbf, 0x3d, 0x6a, 0xf8, 0x51, 0x3d,
  0xf0, 0x48, 0x9f, 0xbe, 0x93, 0xef, 0xc6, 0x3c, 0x9c, 0x22, 0xf5, 0xbd,
  0x90, 0xab, 0x0c, 0x3d, 0x38, 0x4b, 0x02, 0x3e, 0x65, 0x2d, 0x1d, 0xbc,
  0x0d, 0x9b, 0x12, 0xbe, 0x14, 0x64, 0x47, 0x3d, 0xf3, 0xfa, 0x17, 0xbe,
  0x0a, 0x85, 0xa9, 0x3c, 0x1c, 0x96, 0x35, 0x3d, 0x16, 0x34, 0xeb, 0x3d,
  0x8c, 0xaa, 0x1c, 0xbe, 0x1c, 0xd0, 0xa0, 0xbc, 0xe2, 0x6c, 0x0d, 0xbe,
  0x02, 0x64, 0x04, 0xbc, 0x37, 0x36, 0x97, 0xbe, 0x14, 0x69, 0xc5, 0xbc,
  0xc7, 0xb1, 0x75, 0xbe, 0xe9, 0x7f, 0xa2, 0x3d, 0xf4, 0xb5, 0x47, 0xbd,
  0xb6, 0x98, 0xff, 0x3d, 0xc8, 0xa8, 0x91, 0x3d, 0x3e, 0x82, 0x80, 0xbe,
  0xc7, 0xd2, 0x88, 0xbe, 0xbd, 0x5f, 0xc8, 0x3a, 0x99, 0xa0, 0x85, 0x3d,
  0x3c, 0xff, 0x39, 0x3e, 0x31, 0x40, 0x57, 0xbd, 0x83, 0xf8, 0x6a, 0xbe,
  0x92, 0xc3, 0x61, 0xbe, 0xed, 0xd1, 0x1a, 0xbe, 0x96, 0xd6, 0x84, 0xbe,
  0x3f, 0x57, 0xc0, 0x3c, 0x86, 0xd1, 0x49, 0xbe, 0x94, 0x86, 0x36, 0xbd,
  0xa5, 0xf0, 0x14, 0xbe, 0xd5, 0x15, 0xb6, 0x3d, 0xf2, 0x90, 0xea, 0xbd,
  0xd2, 0x0c, 0x8e, 0x3d, 0xec, 0x9e, 0x51, 0xbe, 0xca, 0x13, 0x82, 0xbd,
  0xc1, 0xdc, 0xd0, 0xbd, 0x38, 0x6b, 0x58, 0xbe, 0xb5, 0x8c, 0xf1, 0x3c,
  0x83, 0x05, 0x89, 0xbe, 0x61, 0xae, 0x2d, 0xbd, 0x0d, 0x8d, 0x17, 0xbe,
  0x76, 0x71, 0x53, 0x3e, 0x46, 0xde, 0x40, 0x3e, 0x4c, 0x3c, 0xea, 0xbc,
  0xff, 0x96, 0x8d, 0xbd, 0xe6, 0x48, 0x89, 0xbe, 0xc5, 0xc7, 0x00, 0x3e,
  0x7a, 0xae, 0x14, 0x3f, 0x6c, 0x0a, 0xae, 0x3b, 0x2c, 0xcb, 0xfa, 0x3c,
  0x84, 0xda, 0x9c, 0xbe, 0x85, 0x0d, 0x15, 0x3e, 0x83, 0x75, 0xcd, 0x3d,
  0xe5, 0xca, 0xc2, 0x3e, 0xc1, 0xf1, 0x8a, 0x3c, 0xe6, 0x0d, 0x6a, 0xbe,
  0xca, 0x81, 0x05, 0xbe, 0x7c, 0x01, 0xf6, 0xbd, 0x19, 0x7b, 0xa2, 0xbe,
  0x84, 0x4f, 0xa8, 0x3d, 0x75, 0x8b, 0xb7, 0x3c, 0x88, 0x6c, 0xe2, 0xbd,
  0xed, 0x64, 0x6e, 0xbe, 0xc8, 0xe2, 0x53, 0xbd, 0x60, 0x24, 0x29, 0x3d,
  0x7d, 0x8c, 0xe6, 0xbb, 0x42, 0x0b, 0x0d, 0x3e, 0x79, 0xcc, 0x39, 0xbe,
  0x99, 0x14, 0xe8, 0xbd, 0xe1, 0x21, 0xbf, 0xbe, 0x02, 0x36, 0x46, 0xbf,
  0x6b, 0xe9, 0x9e, 0xbb, 0x55, 0x53, 0x1b, 0xbe, 0x53, 0xee, 0x6d, 0xbd,
  0x75, 0x8e, 0x5a, 0xbf, 0x94, 0x2a, 0x71, 0xbe, 0xbf, 0x4b, 0xd1, 0xbe,
  0x09, 0xe6, 0xfe, 0x3d, 0x03, 0xa0, 0x4d, 0xbe, 0xc0, 0xcc, 0x72, 0xbe,
  0x33, 0xbd, 0xec, 0xbe, 0xde, 0xcf, 0x1d, 0xbd, 0xa0, 0xd5, 0xc5, 0x3c,
  0x14, 0xe1, 0x3f, 0xbe, 0x56, 0x4c, 0x11, 0x3e, 0x23, 0x2d, 0xfe, 0xbe,
  0x99, 0x38, 0x7f, 0xbf, 0xc0, 0xde, 0xeb, 0xbc, 0x1b, 0x71, 0xec, 0xbe,
  0xf3, 0x4d, 0x0d, 0xbe, 0xa6, 0xc0, 0x42, 0xbf, 0x9f, 0xd2, 0xe1, 0xbc,
  0x66, 0xbc, 0x77, 0xbf, 0x66, 0x4f, 0x2b, 0xbe, 0x4f, 0x26, 0x92, 0xbd,
  0x25, 0x34, 0xbc, 0x3d, 0xb9, 0x46, 0xaa, 0xbe, 0x72, 0x93, 0x68, 0xbd,
  0x8e, 0x5d, 0x30, 0x3e, 0xe0, 0xc6, 0x82, 0xbe, 0x16, 0x75, 0x86, 0xbd,
  0x99, 0xda, 0xfe, 0xbe, 0x2e, 0x8a, 0x53, 0xbf, 0xfb, 0x05, 0x1c, 0xbc,
  0x27, 0x0d, 0x1d, 0xbe, 0x77, 0xbe, 0xa4, 0xbd, 0x67, 0xdc, 0x4b, 0x3e,
  0x27, 0x6a, 0x5f, 0x3d, 0xe4, 0xed, 0xfe, 0xbe, 0x8b, 0x20, 0xaa, 0xbe,
  0x42, 0x96, 0xbb, 0x3e, 0x9e, 0xb0, 0x9f, 0xbd, 0x18, 0x90, 0xaf, 0xbd,
  0x2c, 0x87, 0x90, 0xbd, 0x14, 0xd4, 0x58, 0xbd, 0xca, 0x14, 0x37, 0x3d,
  0x76, 0xe9, 0x1f, 0xbe, 0xc5, 0x00, 0xc0, 0x3e, 0xca, 0x7e, 0x77, 0x3d,
  0xeb, 0xed, 0x2d, 0xbd, 0x5b, 0x20, 0xd1, 0xbe, 0xff, 0x5f, 0x4d, 0x3d,
  0x26, 0x96, 0x0c, 0x3e, 0x90, 0xc3, 0x0b, 0xbe, 0xcf, 0xed, 0x37, 0xbe,
  0x4a, 0x94, 0x2b, 0xbe, 0xc0, 0xc9, 0xba, 0x3e, 0xc1, 0x5e, 0x55, 0xbe,
  0x53, 0xac, 0xd4, 0xbc, 0x10, 0xf5, 0x74, 0xbd, 0xa5, 0x06, 0xf0, 0xbd,
  0x30, 0x37, 0x07, 0x3e, 0xc4, 0xfb, 0xd4, 0xbd, 0x6b, 0x57, 0x8f, 0x3e,
  0x79, 0xb1, 0xa3, 0xbb, 0xe1, 0x63, 0x2d, 0x3b, 0x8e, 0xe1, 0x02, 0xbe,
  0x27, 0x60, 0xfa, 0x3c, 0xc3, 0x42, 0x07, 0x3e, 0xda, 0xe9, 0x94, 0xbd,
  0xc1, 0x7c, 0xc4, 0xbc, 0x30, 0x0c, 0x1c, 0xbd, 0x30, 0x1a, 0x31, 0x3e,
  0x54, 0x41, 0x3c, 0x3e, 0xdd, 0xa1, 0x7d, 0x3e, 0x4b, 0x73, 0x7c, 0x3d,
  0xb7, 0x48, 0x2a, 0x3d, 0x71, 0xc0, 0x90, 0x3d, 0xd9, 0xc5, 0x9c, 0x3d,
  0x5a, 0xaf, 0x59, 0x3d, 0x7c, 0x45, 0x98, 0x3d, 0xc4, 0x5e, 0x77, 0xbd,
  0xd3, 0xe5, 0x07, 0xbd, 0xd9, 0x6d, 0xf2, 0xbd, 0xde, 0x15, 0x8c, 0x3e,
  0x3d, 0x3c, 0x1d, 0xbe, 0xcc, 0xea, 0x11, 0x3e, 0x63, 0xfd, 0x21, 0xbe,
  0x1e, 0x34, 0x2e, 0x3e, 0x8d, 0xb3, 0x33, 0x3e, 0x15, 0x3b, 0x00, 0x3e,
  0x2a, 0x52, 0xc9, 0xbd, 0xdf, 0xfc, 0x8c, 0xbe, 0xfe, 0xf7, 0x16, 0x3e,
  0x82, 0x25, 0x6a, 0x3c, 0xb7, 0x02, 0x98, 0x3e, 0x21, 0x2b, 0x15, 0xbd,
  0xda, 0x8e, 0x95, 0xbe, 0x92, 0xc8, 0x1b, 0xbe, 0x94, 0xcc, 0xf2, 0xbd,
  0x14, 0x07, 0x71, 0xbe, 0xa3, 0x35, 0xd3, 0xbc, 0x37, 0x0c, 0xd2, 0xbc,
  0x06, 0x53, 0x5a, 0xbe, 0x82, 0xda, 0xdc, 0xbb, 0x1b, 0xd4, 0x02, 0xbe,
  0x4e, 0x3a, 0x01, 0xbe, 0x27, 0x49, 0x98, 0xbd, 0x67, 0xa8, 0xe9, 0x3c,
  0x91, 0x4e, 0x88, 0xbb, 0x89, 0xec, 0x91, 0x3c, 0x45, 0x39, 0xcb, 0xbe,
  0x30, 0xab, 0x1e, 0xbf, 0x5e, 0x28, 0xf7, 0x3c, 0x92, 0x09, 0x40, 0x3e,
  0x10, 0xe8, 0x59, 0xbd, 0xce, 0x5c, 0x1b, 0xbf, 0xa2, 0x23, 0x8c, 0xbd,
  0x8f, 0x6c, 0x6e, 0xbe, 0xb4, 0xd5, 0x33, 0x3a, 0xb7, 0xaa, 0x55, 0x3d,
  0xb9, 0xc1, 0x87, 0x3c, 0xae, 0xf0, 0x45, 0xbe, 0x44, 0x5c, 0xcb, 0xbd,
  0xb6, 0x76, 0x37, 0xbe, 0x7f, 0xab, 0xa9, 0xbd, 0x3b, 0xf8, 0xb1, 0xbd,
  0x3c, 0xe0, 0xbd, 0xbe, 0xef, 0x28, 0x36, 0xbf, 0x67, 0x34, 0x75, 0xbd,
  0x18, 0xca, 0x9a, 0xbe, 0x33, 0x86, 0x4a, 0xbe, 0xf6, 0xc3, 0x35, 0xbf,
  0xd0, 0x5b, 0x4f, 0xbe, 0x24, 0x61, 0x23, 0xbf, 0x71, 0x00, 0xbb, 0xbd,
  0x67, 0xef, 0x89, 0xbe, 0xe8, 0x3b, 0xf3, 0x3c, 0x34, 0x62, 0x61, 0xbe,
  0x75, 0x1d, 0xcd, 0xbd, 0x0f, 0xa3, 0x2c, 0xbe, 0xd1, 0xa1, 0xee, 0xbd,
  0xff, 0x1c, 0x96, 0x3d, 0x3b, 0xfe, 0x5b, 0xbe, 0x10, 0x13, 0x1b, 0xbf,
  0x62, 0xed, 0x7a, 0x3d, 0xfc, 0x19, 0x79, 0xbe, 0x24, 0xba, 0x97, 0xbd,
  0xf1, 0x0f, 0x0a, 0xbe, 0x8d, 0x2e, 0x1f, 0x3e, 0x8b, 0xd1, 0x0e, 0xbf,
  0xb4, 0xe2, 0xa2, 0xbe, 0x41, 0x02, 0xb8, 0x3e, 0x2e, 0x1c, 0xde, 0xbd,
  0x30, 0x2e, 0x43, 0xbe, 0x5e, 0x7d, 0x10, 0xbe, 0x8a, 0x86, 0xad, 0xbd,
  0x33, 0xc1, 0x89, 0xbe, 0x9b, 0x33, 0x98, 0xbd, 0xc2, 0x79, 0xa4, 0xbd,
  0x3f, 0x4d, 0x4f, 0x3b, 0xe8, 0x71, 0xc5, 0x3b, 0x2c, 0x6f, 0x86, 0xbe,
  0xa9, 0x0d, 0x7a, 0xbc, 0x0e, 0xfd, 0x82, 0x3e, 0x4a, 0x1c, 0x92, 0x3d,
  0x13, 0xdb, 0xfd, 0xbd, 0xa3, 0xef, 0x80, 0xbe, 0xb6, 0xdb, 0xc5, 0x3e,
  0x1e, 0xca, 0xa0, 0x3e, 0xfd, 0x82, 0x52, 0x3c, 0x2f, 0x33, 0x0a, 0x3c,
  0x0f, 0xe4, 0x2e, 0xbe, 0xe8, 0x5e, 0xd8, 0x3d, 0x8d, 0x90, 0x56, 0x3d,
  0x62, 0x6e, 0xb7, 0x3e, 0xea, 0x27, 0x27, 0x3b, 0x70, 0x13, 0x92, 0xbe,
  0x45, 0x18, 0xef, 0xbd, 0xa7, 0x20, 0x54, 0x3d, 0x91, 0x48, 0x8a, 0x3e,
  0x3b, 0xf3, 0xa0, 0xbd, 0x7e, 0x02, 0x94, 0x3d, 0xa0, 0xc1, 0xdf, 0xbd,
  0x2c, 0x33, 0xda, 0x3d, 0xfd, 0xb9, 0x17, 0x3e, 0x39, 0xfa, 0x63, 0x3e,
  0xb0, 0xb8, 0x04, 0x3e, 0xed, 0x89, 0x6e, 0x3c, 0x44, 0xbc, 0xc2, 0x3d,
  0x09, 0x72, 0x0d, 0x3d, 0xc1, 0x3b, 0x5c, 0x3d, 0x23, 0xa7, 0xb0, 0x3d,
  0x7b, 0x52, 0x2c, 0xbd, 0xc0, 0xac, 0xee, 0xbc, 0x6e, 0x2d, 0x22, 0xbe,
  0x68, 0x38, 0x59, 0x3e, 0x41, 0x66, 0xd9, 0x3c, 0xde, 0xfd, 0x2f, 0x3d,
  0xb7, 0x49, 0xbc, 0xbd, 0x95, 0x81, 0x49, 0xbe, 0x21, 0xf3, 0x80, 0xbe,
  0x5b, 0xa7, 0x76, 0x3d, 0x8f, 0x3d, 0xcf, 0xbd, 0x84, 0xc6, 0xc9, 0xbd,
  0x54, 0xba, 0x7b, 0xbe, 0x7c, 0x06, 0x61, 0xbe, 0x02, 0xac, 0x17, 0x3e,
  0x60, 0xfd, 0x41, 0xbd, 0xb2, 0x74, 0x85, 0xbd, 0x6a, 0x60, 0x38, 0xbe,
  0x0d, 0x84, 0x1a, 0xbe, 0x6b, 0x95, 0xcc, 0x3d, 0xea, 0x09, 0xf3, 0xbc,
  0x95, 0xfe, 0x3b, 0xbd, 0xdc, 0x57, 0x2d, 0xbe, 0x0e, 0x7a, 0xee, 0xbd,
  0x7a, 0xfb, 0x6d, 0xbe, 0x86, 0x70, 0x0f, 0xbe, 0x73, 0xdc, 0xf9, 0xbd,
  0xdb, 0x5e, 0x8e, 0xbd, 0x15, 0x42, 0x95, 0xbe, 0xb1, 0x92, 0xe7, 0xbc,
  0xfe, 0x3a, 0x01, 0xbd, 0xa5, 0x31, 0x87, 0x3d, 0x1e, 0x36, 0xce, 0x3b,
  0xca, 0x2b, 0x44, 0xbe, 0xfd, 0x3b, 0x99, 0x3c, 0x10, 0x16, 0x1c, 0x3e,
  0xc7, 0xa2, 0x48, 0xbe, 0x5a, 0x09, 0x19, 0x3d, 0xf5, 0x69, 0x1a, 0xbe,
  0xa4, 0x50, 0x07, 0x3e, 0x1f, 0x56, 0x14, 0xbe, 0xc0, 0xdb, 0xcd, 0x3d,
  0x94, 0xcd, 0x95, 0xbd, 0xe5, 0x41, 0x94, 0xbd, 0x53, 0x2b, 0x7c, 0xbe,
  0xbe, 0xf4, 0x89, 0xbd, 0xd7, 0x00, 0x81, 0xbd, 0x87, 0x86, 0x8d, 0xbe,
  0xf8, 0xf7, 0xdc, 0x3d, 0x63, 0x72, 0x67, 0xbe, 0xbf, 0x6e, 0x31, 0xbe,
  0x9b, 0x36, 0xd8, 0x3d, 0x69, 0xdd, 0x64, 0xbd, 0xbb, 0x5b, 0x04, 0x3e,
  0x13, 0x4c, 0x96, 0x3d, 0x43, 0x08, 0x99, 0xbd, 0x37, 0xa6, 0x88, 0xbe,
  0xfd, 0x3f, 0x1f, 0xbe, 0xc7, 0x9e, 0xa8, 0xbd, 0xec, 0xb6, 0xe7, 0xbb,
  0x8c, 0xd3, 0xff, 0x3d, 0x64, 0xe4, 0xa8, 0xbd, 0xb2, 0xb0, 0xd6, 0x3d,
  0x13, 0xf3, 0x22, 0xbe, 0xd8, 0xe5, 0x86, 0x3c, 0x7a, 0x90, 0xe3, 0xbd,
  0xd7, 0x71, 0xe0, 0xbc, 0x96, 0x42, 0x49, 0xbd, 0xa2, 0x98, 0xe4, 0xbd,
  0x0d, 0xfd, 0x47, 0xbd, 0x9a, 0x40, 0xce, 0x3d, 0x1a, 0x8e, 0x15, 0x3e,
  0x3f, 0x17, 0x05, 0xbe, 0x03, 0xa1, 0x89, 0x3d, 0x6b, 0x63, 0x65, 0xbd,
  0x18, 0x62, 0xac, 0xbd, 0xb0, 0x60, 0x5c, 0xbe, 0xa9, 0xb7, 0x89, 0x3c,
  0x36, 0x88, 0x9a, 0xbd, 0x7d, 0x46, 0x11, 0xbe, 0xd5, 0xb8, 0x45, 0xbe,
  0x63, 0x30, 0x6e, 0xbe, 0x0f, 0xeb, 0x42, 0xbe, 0xd8, 0xa8, 0x38, 0xbe,
  0x15, 0xc5, 0x5d, 0xbe, 0x8a, 0x63, 0x23, 0xbe, 0x21, 0x48, 0x25, 0xbd,
  0xc4, 0x3b, 0x13, 0xbe, 0x3a, 0xd7, 0x8d, 0x3c, 0x3d, 0x72, 0xc0, 0xbc,
  0x32, 0x65, 0x2b, 0xbe, 0xf0, 0x5c, 0x24, 0xbe, 0xde, 0x0f, 0x1e, 0xbd,
  0x75, 0x32, 0xd9, 0xbd, 0xcf, 0x91, 0x29, 0xbe, 0x68, 0xaf, 0x95, 0x3c,
  0xc8, 0x33, 0x45, 0x3e, 0xa2, 0x19, 0x0b, 0xbe, 0xd3, 0xda, 0x3b, 0xbe,
  0x29, 0xd6, 0x4c, 0xbe, 0x00, 0x46, 0xf8, 0xbd, 0xf6, 0x33, 0x5f, 0xbe,
  0xc7, 0x99, 0xd2, 0xbc, 0x69, 0x19, 0x91, 0x3b, 0x78, 0x48, 0x16, 0xbe,
  0xb3, 0xa4, 0x80, 0xbe, 0x7f, 0xaf, 0x2c, 0xbe, 0x4d, 0xe2, 0xea, 0xbc,
  0xea, 0xc8, 0xbf, 0xbd, 0x88, 0xb5, 0x3c, 0xbe, 0xa4, 0x3c, 0x2d, 0xbe,
  0x35, 0xa8, 0xa6, 0xbd, 0x5e, 0xca, 0xc8, 0xbd, 0xc8, 0x91, 0x15, 0x3e,
  0xe4, 0xd3, 0x19, 0x3d, 0x99, 0x68, 0x02, 0x3e, 0x66, 0xcb, 0x92, 0x3d,
  0xed, 0x10, 0x2b, 0x3e, 0x3c, 0x29, 0x48, 0x3b, 0x4b, 0x9e, 0x84, 0x3d,
  0x74, 0x2b, 0x15, 0x3e, 0x26, 0x4a, 0xf3, 0x3c, 0xe7, 0x7f, 0xf6, 0xbb,
  0x02, 0x0d, 0x37, 0xbd, 0x13, 0x9a, 0x86, 0xbc, 0xd2, 0x5f, 0x53, 0xbe,
  0x50, 0x2e, 0x60, 0x3e, 0x1a, 0xdf, 0x5d, 0x3d, 0x89, 0x02, 0x07, 0xbc,
  0x6a, 0x23, 0x35, 0x3d, 0x79, 0x36, 0xc8, 0xbd, 0x05, 0x1c, 0xe4, 0x3d,
  0x16, 0xe5, 0x67, 0x3e, 0xb4, 0xc2, 0x35, 0x3e, 0x19, 0xe3, 0x09, 0xbd,
  0xe9, 0x69, 0xaa, 0xbd, 0x29, 0xc0, 0x7a, 0xbd, 0x81, 0x97, 0x8a, 0xbd,
  0xe5, 0x42, 0x5f, 0xbb, 0x39, 0x78, 0x06, 0x3d, 0x9b, 0x25, 0x4f, 0x3d,
  0x47, 0x25, 0x0b, 0xbe, 0xb8, 0x70, 0x2a, 0x3c, 0xad, 0xf8, 0x19, 0xbc,
  0x7c, 0x69, 0x20, 0xbe, 0xb5, 0x18, 0xe4, 0x3d, 0xa5, 0x4e, 0xc9, 0xbd,
  0xf5, 0x46, 0x2c, 0xbe, 0x5b, 0x3f, 0xb9, 0x3c, 0xe0, 0x4b, 0xb9, 0x3d,
  0xc7, 0x56, 0x15, 0x3c, 0x62, 0x50, 0xf6, 0xbd, 0xc7, 0xc3, 0x16, 0xbe,
  0x87, 0x85, 0x29, 0xbe, 0xe6, 0x30, 0x11, 0xbd, 0x4a, 0xdf, 0x73, 0x3d,
  0x46, 0x30, 0x57, 0xbe, 0x46, 0x06, 0xe0, 0x3c, 0x59, 0x84, 0x69, 0xbe,
  0xe4, 0xa5, 0x4e, 0xbd, 0x19, 0xfd, 0x34, 0xbd, 0x09, 0x06, 0x53, 0x3d,
  0x74, 0xbe, 0xec, 0xbd, 0xd1, 0x80, 0xc3, 0x3d, 0x98, 0x37, 0x32, 0xbe,
  0x6e, 0x0c, 0x02, 0xbe, 0x66, 0x36, 0xc3, 0x3d, 0xb2, 0xfc, 0x22, 0x3e,
  0x5a, 0x3b, 0xaf, 0x3c, 0x8c, 0x74, 0x56, 0xbe, 0xcd, 0xe7, 0x89, 0xbc,
  0x83, 0x8c, 0x8c, 0x3b, 0xf5, 0x25, 0x6a, 0xbe, 0xf6, 0x04, 0xd4, 0xbd,
  0x9d, 0x2b, 0x26, 0xba, 0xf9, 0xf4, 0x25, 0xbd, 0x3e, 0x94, 0x15, 0xbd,
  0xc4, 0xc6, 0xd9, 0x3b, 0x5e, 0x81, 0xb3, 0xbd, 0xb0, 0x61, 0x93, 0x3d,
  0x80, 0x66, 0xa6, 0xbc, 0x7c, 0x9c, 0x5c, 0x3c, 0xec, 0x0f, 0x61, 0x3c,
  0x1a, 0xb7, 0xc0, 0x3e, 0x27, 0x2c, 0x5c, 0x3d, 0xe6, 0xc2, 0xfe, 0xbd,
  0x92, 0x4b, 0x1f, 0xbc, 0x0f, 0x98, 0x82, 0xbd, 0xa2, 0xd7, 0x8d, 0xbe,
  0x5b, 0xc7, 0x04, 0xbd, 0x61, 0x2a, 0x35, 0x3e, 0x88, 0x48, 0x50, 0x3e,
  0x62, 0xab, 0x6c, 0xbe, 0x9f, 0x56, 0xba, 0x3c, 0xee, 0x3b, 0x1a, 0xbd,
  0x88, 0x22, 0x1f, 0x3e, 0x7a, 0x3e, 0xb6, 0x3d, 0xc2, 0x7a, 0x31, 0xbd,
  0xda, 0xc4, 0x02, 0xbd, 0x32, 0x6c, 0x78, 0x3e, 0x9c, 0x02, 0x83, 0x3d,
  0xb0, 0xb7, 0x45, 0x3c, 0x1a, 0x4c, 0x1e, 0x3d, 0x3d, 0x24, 0x64, 0x3d,
  0xca, 0x69, 0x58, 0xbd, 0xd2, 0xb2, 0xd3, 0xbd, 0x07, 0x2d, 0x8b, 0x3c,
  0x5d, 0xbb, 0xa3, 0x3d, 0xcf, 0x00, 0x31, 0xbe, 0x8c, 0x0f, 0x68, 0x3d,
  0x14, 0xb0, 0x99, 0xbb, 0x5f, 0x28, 0x41, 0x3d, 0x05, 0x74, 0x57, 0xbc,
  0x09, 0x99, 0x35, 0x3d, 0x37, 0x3f, 0xc8, 0xbb, 0xc0, 0xc9, 0x2d, 0xbd,
  0x00, 0x7c, 0x76, 0x3c, 0x22, 0x40, 0x0d, 0x3d, 0x86, 0xb2, 0x3c, 0xbc,
  0xd1, 0xfa, 0xbf, 0x3d, 0xe8, 0x95, 0xc6, 0x3d, 0x9e, 0x6d, 0xa6, 0xbc,
  0x56, 0x9e, 0x56, 0xbc, 0x08, 0xa7, 0xc5, 0x3d, 0xe1, 0xb9, 0x8a, 0xbc,
  0x8d, 0x07, 0x70, 0xbd, 0x85, 0x9e, 0x8c, 0xbe, 0x04, 0xa5, 0xf0, 0xbd,
  0xd4, 0xed, 0x48, 0x3d, 0x10, 0xc7, 0x0a, 0x3e, 0xd9, 0xff, 0xb5, 0x3e,
  0x49, 0x72, 0x1d, 0xbd, 0xaf, 0xd5, 0xb5, 0x3f, 0x33, 0x45, 0x2d, 0xbe,
  0xdd, 0x25, 0x97, 0xbe, 0x72, 0xb4, 0xdf, 0xbd, 0x06, 0xc4, 0x5b, 0xbd,
  0xa4, 0xd0, 0x96, 0xbd, 0x49, 0x27, 0x54, 0xbe, 0x88, 0xb7, 0xbd, 0xbb,
  0x4d, 0xc4, 0x6b, 0x3d, 0x7f, 0x68, 0x3e, 0x3d, 0xbe, 0xbe, 0x50, 0xbe,
  0xcb, 0x12, 0xfa, 0xbd, 0xa4, 0x20, 0xec, 0xbd, 0x7c, 0xc1, 0x44, 0x3e,
  0x94, 0x37, 0x9d, 0x3e, 0x26, 0x03, 0x84, 0x3c, 0x68, 0x5f, 0x8b, 0x3f,
  0x80, 0x24, 0xa8, 0xbe, 0x04, 0xb1, 0x52, 0xbe, 0x76, 0x28, 0x15, 0xbe,
  0xe1, 0x6d, 0x6d, 0xbe, 0x49, 0x18, 0x5d, 0x3d, 0x6f, 0x96, 0x0a, 0x3d,
  0x08, 0x74, 0x88, 0x3e, 0x3b, 0xab, 0x06, 0xbe, 0x2b, 0xaa, 0x22, 0x3d,
  0xb5, 0xd0, 0x20, 0x3c, 0x88, 0x3f, 0x48, 0x3e, 0xe9, 0xb6, 0x14, 0x3e,
  0xf0, 0x9c, 0x99, 0x3e, 0x77, 0xbc, 0xde, 0x3d, 0xbb, 0x4c, 0xb6, 0x3e,
  0xd5, 0xcb, 0xcf, 0x3f, 0x85, 0x20, 0x8d, 0xba, 0xdf, 0x4d, 0xf7, 0xbd,
  0xc7, 0xe9, 0x24, 0x3e, 0x8e, 0x9d, 0xcd, 0xbc, 0xc3, 0xbc, 0x2b, 0x3e,
  0x06, 0x58, 0x7a, 0x3e, 0x06, 0xfc, 0x12, 0x3f, 0x7d, 0x46, 0x24, 0xbe,
  0xef, 0xd4, 0x62, 0x3d, 0x25, 0x9b, 0x16, 0xbe, 0x65, 0x9e, 0xdb, 0x3e,
  0x91, 0x09, 0xef, 0x3d, 0xd1, 0x13, 0xaf, 0x3d, 0xc3, 0xad, 0x38, 0x3c,
  0x5c, 0x3b, 0x06, 0x3c, 0x19, 0x6d, 0xc5, 0x3f, 0x54, 0xd0, 0x20, 0xbe,
  0xbb, 0x54, 0xa8, 0xbe, 0x78, 0xa1, 0x79, 0x3d, 0x0d, 0x6c, 0xc1, 0x3b,
  0x65, 0x47, 0x8b, 0x3d, 0xbe, 0xb8, 0x39, 0x3e, 0xb1, 0x0b, 0x16, 0x3e,
  0xd0, 0xf1, 0x1c, 0xbd, 0xcd, 0x78, 0xbd, 0x3d, 0x00, 0x6d, 0x94, 0xbd,
  0x21, 0xfb, 0x92, 0xbc, 0xde, 0xf9, 0x44, 0x3e, 0x99, 0xe0, 0xb7, 0x3e,
  0x46, 0x7e, 0xc8, 0x3d, 0xef, 0x3a, 0x42, 0x3c, 0xf6, 0xe6, 0x3e, 0x3f,
  0x5a, 0x07, 0x9f, 0xbd, 0xed, 0xd4, 0xed, 0xbd, 0x40, 0x35, 0xa2, 0xbd,
  0xd1, 0xee, 0x8e, 0xbe, 0x55, 0x18, 0x5d, 0x3d, 0xa9, 0x66, 0xf6, 0xbb,
  0xa5, 0x2c, 0xe5, 0xbd, 0x96, 0x0d, 0x3e, 0x3e, 0x5d, 0xc0, 0x07, 0x3e,
  0xf0, 0xab, 0x5e, 0xbe, 0x56, 0x6f, 0x0a, 0xbe, 0x09, 0x98, 0x83, 0xbe,
  0xb3, 0x55, 0x6a, 0x3e, 0xd4, 0xdb, 0x5c, 0xbc, 0x5c, 0x6e, 0x12, 0xbd,
  0x76, 0x0b, 0x97, 0x3f, 0x78, 0xf7, 0x7a, 0xbd, 0xc1, 0x2e, 0x9f, 0xbe,
  0x09, 0xde, 0x72, 0x3d, 0x6b, 0xec, 0x7b, 0xbd, 0x90, 0xea, 0xd3, 0x3d,
  0x87, 0x08, 0xe5, 0x3d, 0x7a, 0x8b, 0x15, 0x3e, 0xf9, 0xdd, 0x25, 0x3d,
  0x52, 0x67, 0xab, 0xbe, 0x23, 0x04, 0x59, 0xbe, 0xc0, 0xae, 0x4f, 0x3d,
  0x18, 0x2c, 0x46, 0xbe, 0x80, 0x57, 0x5f, 0xbe, 0xa5, 0xfe, 0x40, 0xbd,
  0xb1, 0x76, 0x94, 0x3d, 0xdc, 0xc0, 0x7c, 0xbe, 0xd1, 0xf2, 0xb0, 0xbd,
  0x92, 0xca, 0x3c, 0xbe, 0xe7, 0x21, 0x7f, 0x3d, 0x30, 0x79, 0x3c, 0xbe,
  0x78, 0x71, 0x25, 0x3e, 0x75, 0xeb, 0xaa, 0xbc, 0x1f, 0x7a, 0xd6, 0xbc,
  0x7c, 0xfa, 0x0f, 0x3c, 0x69, 0x47, 0x67, 0x3e, 0x99, 0x92, 0x7f, 0xbe,
  0x3e, 0x02, 0x93, 0xbd, 0x86, 0x35, 0x69, 0x3d, 0xf5, 0xbb, 0x62, 0x3d,
  0x8b, 0xfe, 0xf2, 0x3e, 0x9d, 0xf9, 0x19, 0xbc, 0xbf, 0xed, 0x2d, 0x3e,
  0x12, 0x7d, 0x5b, 0xbe, 0xec, 0x45, 0xbb, 0xbd, 0x66, 0xaf, 0xc9, 0xbd,
  0xaa, 0x18, 0x7f, 0xbe, 0xbb, 0x62, 0x1c, 0xbe, 0xe2, 0xbc, 0x1e, 0xbd,
  0xe2, 0xbe, 0xe3, 0x3c, 0x99, 0x36, 0x28, 0x3d, 0x22, 0xb3, 0x21, 0x3e,
  0x51, 0xab, 0x86, 0xbe, 0x3a, 0x28, 0xea, 0x3d, 0x5b, 0x2e, 0x9b, 0xbd,
  0x31, 0x89, 0x16, 0x3e, 0xe5, 0x31, 0xa2, 0x3e, 0x73, 0xfa, 0xa6, 0x3d,
  0x1e, 0x82, 0xfc, 0x3d, 0xa3, 0xe8, 0x0b, 0xbe, 0x3f, 0x51, 0x8d, 0xbd,
  0x8a, 0x2f, 0xf7, 0xbb, 0x26, 0xe4, 0x78, 0xbe, 0x34, 0x79, 0x3f, 0xbe,
  0xc9, 0x4f, 0xfc, 0x3c, 0xcf, 0x76, 0x09, 0x3e, 0x00, 0x72, 0xf2, 0xbe,
  0x19, 0x19, 0x2a, 0x3e, 0x1a, 0x20, 0x7d, 0xbd, 0xcf, 0x4e, 0x28, 0x3f,
  0x68, 0x06, 0x97, 0x3e, 0x57, 0xb1, 0x55, 0x3d, 0xe1, 0x19, 0x1e, 0x3e,
  0x0e, 0x47, 0x5b, 0x3d, 0xb9, 0x8a, 0x47, 0x3f, 0xa8, 0xb6, 0x19, 0x3e,
  0xa3, 0x4c, 0x1d, 0xbd, 0x2a, 0x52, 0x7f, 0xbd, 0xd2, 0xae, 0x71, 0xbe,
  0xe8, 0xc0, 0x9b, 0xbe, 0xb3, 0xfd, 0xa3, 0x3e, 0x96, 0xc0, 0xfa, 0x3e,
  0x64, 0x10, 0x48, 0x3d, 0x36, 0x5b, 0x99, 0x3e, 0xc1, 0xc9, 0x23, 0xbe,
  0xd0, 0x51, 0xf6, 0x3e, 0xed, 0xee, 0x63, 0x3e, 0xe3, 0xa7, 0xec, 0x3e,
  0xe2, 0xc1, 0x0c, 0x3e, 0x85, 0xca, 0xb1, 0xbd, 0x8d, 0x88, 0x3d, 0x3f,
  0xf5, 0x5e, 0xb6, 0x3d, 0x62, 0x36, 0x2a, 0xbc, 0xd8, 0xac, 0x59, 0xbd,
  0xbe, 0x99, 0x3c, 0xbe, 0xa1, 0x8c, 0x37, 0xbe, 0xf4, 0xf9, 0xf9, 0x3e,
  0xcf, 0x58, 0x82, 0x3e, 0x73, 0x55, 0xcc, 0x3b, 0x9a, 0xd4, 0x8d, 0x3e,
  0xf2, 0x76, 0xb7, 0xbe, 0x81, 0xe3, 0x1e, 0x3c, 0xd1, 0x76, 0x12, 0xbd,
  0xa7, 0xed, 0x8f, 0x3e, 0xa4, 0x7e, 0x36, 0x3e, 0xdb, 0x42, 0x7f, 0xbe,
  0x8f, 0x0b, 0x0f, 0x3f, 0x08, 0x5e, 0x29, 0xbe, 0xfa, 0xba, 0x25, 0xbd,
  0x62, 0x60, 0x0f, 0x3e, 0x8e, 0x17, 0x2c, 0xbe, 0xd3, 0xc3, 0x0c, 0xbe,
  0x1e, 0x7d, 0xd3, 0x3c, 0xdd, 0xf5, 0x0b, 0x3e, 0x57, 0x05, 0x06, 0xbd,
  0x71, 0x39, 0x59, 0x3e, 0xec, 0x6b, 0x93, 0xbe, 0xfc, 0x7e, 0x05, 0xbd,
  0x94, 0x93, 0xa6, 0x3e, 0xc5, 0x1d, 0x49, 0x3e, 0x29, 0xd5, 0x5c, 0x3e,
  0xc5, 0x9a, 0xa8, 0xbe, 0x61, 0x2f, 0x15, 0x3f, 0x05, 0x20, 0x57, 0xbe,
  0xa3, 0xff, 0x06, 0xbc, 0xbc, 0xc5, 0xaa, 0x3e, 0xad, 0xec, 0x79, 0xbe,
  0x88, 0xb0, 0x3b, 0x3e, 0x2d, 0x74, 0x4f, 0xbe, 0x49, 0xd4, 0xf1, 0x3d,
  0xa0, 0x7d, 0xa2, 0x3e, 0x6c, 0x77, 0x83, 0x3e, 0xc7, 0xfa, 0x62, 0xbe,
  0x1e, 0xfe, 0xb9, 0xbe, 0xe9, 0xce, 0x1f, 0x3c, 0x0f, 0xcf, 0x3f, 0x3d,
  0xb9, 0x2c, 0x06, 0x3d, 0x53, 0x32, 0xc6, 0xbe, 0x8a, 0xc2, 0xcf, 0xbd,
  0x7a, 0x56, 0x22, 0xbe, 0x99, 0x2d, 0x41, 0xbd, 0x9b, 0xb7, 0xd0, 0x3d,
  0xc8, 0xc7, 0xa9, 0x3d, 0xdb, 0xb0, 0x64, 0xbd, 0x68, 0x9a, 0x00, 0xbd,
  0x3d, 0xf0, 0x68, 0x3d, 0xbc, 0xc6, 0x18, 0x3e, 0x4a, 0xfe, 0xff, 0xff,
  0x10, 0x00, 0x00, 0x00, 0x05, 0x00, 0x00, 0x00, 0x14, 0x00, 0x00, 0x00,
  0x2c, 0x00, 0x00, 0x00, 0x02, 0x00, 0x00, 0x00, 0x10, 0x00, 0x00, 0x00,
  0x70, 0x00, 0x00, 0x00, 0x17, 0x00, 0x00, 0x00, 0x73, 0x65, 0x71, 0x75,
  0x65, 0x6e, 0x74, 0x69, 0x61, 0x6c, 0x2f, 0x64, 0x65, 0x6e, 0x73, 0x65,
  0x2f, 0x4d, 0x61, 0x74, 0x4d, 0x75, 0x6c, 0x00, 0x38, 0xfe, 0xff, 0xff,
  0x2e, 0xff, 0xff, 0xff, 0x04, 0x00, 0x00, 0x00, 0x08, 0x00, 0x00, 0x00,
  0xff, 0xff, 0xff, 0xff, 0x70, 0x00, 0x00, 0x00, 0x00, 0x00, 0x0e, 0x00,
  0x18, 0x00, 0x08, 0x00, 0x07, 0x00, 0x0c, 0x00, 0x10, 0x00, 0x14, 0x00,
  0x0e, 0x00, 0x00, 0x00, 0x00, 0x00, 0x00, 0x02, 0x10, 0x00, 0x00, 0x00,
  0x04, 0x00, 0x00, 0x00, 0x10, 0x00, 0x00, 0x00, 0x2c, 0x00, 0x00, 0x00,
  0x01, 0x00, 0x00, 0x00, 0x02, 0x00, 0x00, 0x00, 0x18, 0x00, 0x00, 0x00,
  0x73, 0x65, 0x71, 0x75, 0x65, 0x6e, 0x74, 0x69, 0x61, 0x6c, 0x2f, 0x66,
  0x6c, 0x61, 0x74, 0x74, 0x65, 0x6e, 0x2f, 0x43, 0x6f, 0x6e, 0x73, 0x74,
  0x00, 0x00, 0x00, 0x00, 0xa0, 0xfe, 0xff, 0xff, 0x96, 0xff, 0xff, 0xff,
  0x04, 0x00, 0x00, 0x00, 0x0c, 0x00, 0x00, 0x00, 0x99, 0x4a, 0xfc, 0xbe,
  0x0d, 0xbe, 0x31, 0xc0, 0x86, 0xdb, 0x26, 0x40, 0x0a, 0xff, 0xff, 0xff,
  0x10, 0x00, 0x00, 0x00, 0x03, 0x00, 0x00, 0x00, 0x10, 0x00, 0x00, 0x00,
  0x3c, 0x00, 0x00, 0x00, 0x01, 0x00, 0x00, 0x00, 0x03, 0x00, 0x00, 0x00,
  0x29, 0x00, 0x00, 0x00, 0x73, 0x65, 0x71, 0x75, 0x65, 0x6e, 0x74, 0x69,
  0x61, 0x6c, 0x2f, 0x64, 0x65, 0x6e, 0x73, 0x65, 0x5f, 0x31, 0x2f, 0x42,
  0x69, 0x61, 0x73, 0x41, 0x64, 0x64, 0x2f, 0x52, 0x65, 0x61, 0x64, 0x56,
  0x61, 0x72, 0x69, 0x61, 0x62, 0x6c, 0x65, 0x4f, 0x70, 0x00, 0x00, 0x00,
  0x60, 0xff, 0xff, 0xff, 0x00, 0x00, 0x06, 0x00, 0x08, 0x00, 0x04, 0x00,
  0x06, 0x00, 0x00, 0x00, 0x04, 0x00, 0x00, 0x00, 0x40, 0x00, 0x00, 0x00,
  0x68, 0xac, 0x15, 0x40, 0x73, 0x87, 0x63, 0xbf, 0xc9, 0x5d, 0xd3, 0xbe,
  0x35, 0xc0, 0xa3, 0xbe, 0xa6, 0x54, 0x45, 0x40, 0x4b, 0x8c, 0xa4, 0x3e,
  0x1e, 0xf6, 0xf1, 0xbe, 0x4f, 0x38, 0x6a, 0x40, 0x35, 0xec, 0x0f, 0x3f,
  0x3d, 0xee, 0xf1, 0xbe, 0x1d, 0x87, 0xf8, 0xbf, 0x8d, 0x33, 0xb5, 0xbf,
  0xd8, 0xb3, 0xb9, 0xbe, 0x72, 0xcf, 0x01, 0xc0, 0x85, 0x21, 0x5d, 0x3e,
  0x98, 0xaf, 0xd4, 0xbe, 0xae, 0xff, 0xff, 0xff, 0x10, 0x00, 0x00, 0x00,
  0x02, 0x00, 0x00, 0x00, 0x10, 0x00, 0x00, 0x00, 0x3c, 0x00, 0x00, 0x00,
  0x01, 0x00, 0x00, 0x00, 0x10, 0x00, 0x00, 0x00, 0x27, 0x00, 0x00, 0x00,
  0x73, 0x65, 0x71, 0x75, 0x65, 0x6e, 0x74, 0x69, 0x61, 0x6c, 0x2f, 0x64,
  0x65, 0x6e, 0x73, 0x65, 0x2f, 0x42, 0x69, 0x61, 0x73, 0x41, 0x64, 0x64,
  0x2f, 0x52, 0x65, 0x61, 0x64, 0x56, 0x61, 0x72, 0x69, 0x61, 0x62, 0x6c,
  0x65, 0x4f, 0x70, 0x00, 0x04, 0x00, 0x06, 0x00, 0x04, 0x00, 0x00, 0x00,
  0x00, 0x00, 0x0e, 0x00, 0x14, 0x00, 0x04, 0x00, 0x00, 0x00, 0x08, 0x00,
  0x0c, 0x00, 0x10, 0x00, 0x0e, 0x00, 0x00, 0x00, 0x10, 0x00, 0x00, 0x00,
  0x01, 0x00, 0x00, 0x00, 0x1c, 0x00, 0x00, 0x00, 0x2c, 0x00, 0x00, 0x00,
  0x04, 0x00, 0x00, 0x00, 0x01, 0x00, 0x00, 0x00, 0x40, 0x00, 0x00, 0x00,
  0x03, 0x00, 0x00, 0x00, 0x01, 0x00, 0x00, 0x00, 0x0c, 0x00, 0x00, 0x00,
  0x63, 0x6f, 0x6e, 0x76, 0x32, 0x64, 0x5f, 0x69, 0x6e, 0x70, 0x75, 0x74,
  0x00, 0x00, 0x00, 0x00, 0xfc, 0xff, 0xff, 0xff, 0x04, 0x00, 0x04, 0x00,
  0x04, 0x00, 0x00, 0x00
};

unsigned int model_tflite_len = 12316;// Fill the int in `src/model.cc` here